{
  "version": "1.0",
  "truncation": null,
  "padding": null,
  "added_tokens": [
    {
      "id": 0,
      "content": "[PAD]",
      "single_word": false,
      "lstrip": false,
      "rstrip": false,
      "normalized": false,
      "special": true
    },
    {
      "id": 1,
      "content": "[UNK]",
      "single_word": false,
      "lstrip": false,
      "rstrip": false,
      "normalized": false,
      "special": true
    },
    {
      "id": 2,
      "content": "[CLS]",
      "single_word": false,
      "lstrip": false,
      "rstrip": false,
      "normalized": false,
      "special": true
    },
    {
      "id": 3,
      "content": "[SEP]",
      "single_word": false,
      "lstrip": false,
      "rstrip": false,
      "normalized": false,
      "special": true
    },
    {
      "id": 4,
      "content": "[MASK]",
      "single_word": false,
      "lstrip": false,
      "rstrip": false,
      "normalized": false,
      "special": true
    }
  ],
  "normalizer": null,
  "pre_tokenizer": {
    "type": "ByteLevel",
    "add_prefix_space": true,
    "trim_offsets": true,
    "use_regex": true
  },
  "post_processor": null,
  "decoder": {
    "type": "ByteLevel",
    "add_prefix_space": true,
    "trim_offsets": true,
    "use_regex": true
  },
  "model": {
    "type": "BPE",
    "dropout": null,
    "unk_token": "[UNK]",
    "continuing_subword_prefix": null,
    "end_of_word_suffix": null,
    "fuse_unk": false,
    "byte_fallback": false,
    "ignore_merges": false,
    "vocab": {
      "[PAD]": 0,
      "[UNK]": 1,
      "[CLS]": 2,
      "[SEP]": 3,
      "[MASK]": 4,
      "!": 5,
      "#": 6,
      "$": 7,
      "%": 8,
      "&": 9,
      "'": 10,
      "(": 11,
      ")": 12,
      "*": 13,
      "+": 14,
      ",": 15,
      "-": 16,
      ".": 17,
      "/": 18,
      "0": 19,
      "1": 20,
      "2": 21,
      "3": 22,
      "4": 23,
      "5": 24,
      "6": 25,
      "7": 26,
      "8": 27,
      "9": 28,
      ":": 29,
      ";": 30,
      "<": 31,
      "=": 32,
      ">": 33,
      "?": 34,
      "@": 35,
      "A": 36,
      "B": 37,
      "C": 38,
      "D": 39,
      "E": 40,
      "F": 41,
      "G": 42,
      "H": 43,
      "I": 44,
      "J": 45,
      "K": 46,
      "L": 47,
      "M": 48,
      "N": 49,
      "O": 50,
      "P": 51,
      "Q": 52,
      "R": 53,
      "S": 54,
      "T": 55,
      "U": 56,
      "V": 57,
      "W": 58,
      "X": 59,
      "Y": 60,
      "Z": 61,
      "[": 62,
      "\\": 63,
      "]": 64,
      "^": 65,
      "_": 66,
      "`": 67,
      "a": 68,
      "b": 69,
      "c": 70,
      "d": 71,
      "e": 72,
      "f": 73,
      "g": 74,
      "h": 75,
      "i": 76,
      "j": 77,
      "k": 78,
      "l": 79,
      "m": 80,
      "n": 81,
      "o": 82,
      "p": 83,
      "q": 84,
      "r": 85,
      "s": 86,
      "t": 87,
      "u": 88,
      "v": 89,
      "w": 90,
      "x": 91,
      "y": 92,
      "z": 93,
      "{": 94,
      "|": 95,
      "}": 96,
      "~": 97,
      "¡": 98,
      "¢": 99,
      "£": 100,
      "¤": 101,
      "¥": 102,
      "¦": 103,
      "§": 104,
      "¨": 105,
      "©": 106,
      "ª": 107,
      "«": 108,
      "¬": 109,
      "®": 110,
      "¯": 111,
      "°": 112,
      "±": 113,
      "²": 114,
      "³": 115,
      "´": 116,
      "µ": 117,
      "¶": 118,
      "·": 119,
      "¸": 120,
      "¹": 121,
      "º": 122,
      "»": 123,
      "¼": 124,
      "½": 125,
      "¾": 126,
      "¿": 127,
      "Â": 128,
      "Ã": 129,
      "â": 130,
      "Ġ": 131,
      "Ģ": 132,
      "ģ": 133,
      "Ĥ": 134,
      "ĥ": 135,
      "Ħ": 136,
      "ħ": 137,
      "Ĩ": 138,
      "ĩ": 139,
      "Ī": 140,
      "ī": 141,
      "Ĭ": 142,
      "ĭ": 143,
      "Į": 144,
      "į": 145,
      "İ": 146,
      "ı": 147,
      "Ĳ": 148,
      "ĳ": 149,
      "Ĵ": 150,
      "ĵ": 151,
      "Ķ": 152,
      "ķ": 153,
      "ĸ": 154,
      "Ĺ": 155,
      "ĺ": 156,
      "Ļ": 157,
      "ļ": 158,
      "Ľ": 159,
      "ľ": 160,
      "Ŀ": 161,
      "ŀ": 162,
      "Ł": 163,
      "ł": 164,
      "Ń": 165,
      "Ġt": 166,
      "Ġa": 167,
      "in": 168,
      "he": 169,
      "er": 170,
      "on": 171,
      "re": 172,
      "at": 173,
      "Ġo": 174,
      "Ġthe": 175,
      "Ġs": 176,
      "Ġc": 177,
      "is": 178,
      "es": 179,
      "an": 180,
      "en": 181,
      "or": 182,
      "Ġw": 183,
      "al": 184,
      "Ġf": 185,
      "it": 186,
      "Ġp": 187,
      "Ġb": 188,
      "ou": 189,
      "Ġan": 190,
      "Ġof": 191,
      "ar": 192,
      "ed": 193,
      "Ġm": 194,
      "Ġin": 195,
      "ic": 196,
      "Ġd": 197,
      "ing": 198,
      "Ġis": 199,
      "Ġand": 200,
      "Ġto": 201,
      "ion": 202,
      "ro": 203,
      "le": 204,
      "as": 205,
      "Ġh": 206,
      "ĠT": 207,
      "om": 208,
      "us": 209,
      "Ġl": 210,
      "il": 211,
      "ĠA": 212,
      "ct": 213,
      "ent": 214,
      "Ġn": 215,
      "Ġth": 216,
      "et": 217,
      "ĠC": 218,
      "el": 219,
      "st": 220,
      "ĠS": 221,
      "Ġre": 222,
      "Ġe": 223,
      "Ġy": 224,
      "ow": 225,
      "ol": 226,
      "Ġg": 227,
      "Ġfor": 228,
      "id": 229,
      "am": 230,
      "ot": 231,
      "ur": 232,
      "ĠThe": 233,
      "ve": 234,
      "ĠI": 235,
      "ly": 236,
      "Ġ1": 237,
      "ver": 238,
      "ation": 239,
      "ig": 240,
      "Ġyou": 241,
      "Ġor": 242,
      "im": 243,
      "Ġon": 244,
      "ay": 245,
      "ch": 246,
      "Ġwh": 247,
      "ut": 248,
      "ĠM": 249,
      "ce": 250,
      "Ġbe": 251,
      "ra": 252,
      "Ġ(": 253,
      "ge": 254,
      "Ġare": 255,
      "ul": 256,
      "ĠP": 257,
      "Ġst": 258,
      "od": 259,
      "un": 260,
      "ĠW": 261,
      "ĠB": 262,
      "ĠD": 263,
      "ir": 264,
      "um": 265,
      "Ġ2": 266,
      "oun": 267,
      "ĠH": 268,
      "Ġthat": 269,
      "Ġas": 270,
      "ter": 271,
      "os": 272,
      "ith": 273,
      "ĠF": 274,
      "her": 275,
      "th": 276,
      "Ġcon": 277,
      "ad": 278,
      "est": 279,
      "Ġit": 280,
      "Ġpro": 281,
      "em": 282,
      "if": 283,
      "Ġwith": 284,
      "00": 285,
      "ĠR": 286,
      "Ġde": 287,
      "ate": 288,
      "rom": 289,
      "op": 290,
      "Ġal": 291,
      "ers": 292,
      "ĠE": 293,
      "Ġv": 294,
      "Ã¢": 295,
      "ÂĢ": 296,
      "ost": 297,
      "Ġr": 298,
      "ab": 299,
      "Ġcan": 300,
      "ak": 301,
      "ÂĢÂ": 302,
      "ill": 303,
      "ĠN": 304,
      "Ġcom": 305,
      "ĠL": 306,
      "ess": 307,
      "Ġfrom": 308,
      "ist": 309,
      "res": 310,
      "Ġus": 311,
      "Ġby": 312,
      "ac": 313,
      "ies": 314,
      "oc": 315,
      "qu": 316,
      "and": 317,
      "igh": 318,
      "age": 319,
      "ore": 320,
      "all": 321,
      "ĠG": 322,
      "ity": 323,
      "pp": 324,
      "Ġat": 325,
      "Ġhe": 326,
      "Ġdo": 327,
      "ain": 328,
      "ear": 329,
      "ect": 330,
      "Ġyour": 331,
      "ri": 332,
      "Ġex": 333,
      "ment": 334,
      "Ġch": 335,
      "ant": 336,
      "ĠO": 337,
      "ive": 338,
      "ast": 339,
      "ure": 340,
      "Ġk": 341,
      "ine": 342,
      "Ġse": 343,
      "ĠU": 344,
      "ort": 345,
      "se": 346,
      "art": 347,
      "ia": 348,
      "end": 349,
      "Ġwhat": 350,
      "ld": 351,
      "ally": 352,
      "ated": 353,
      "Ġsh": 354,
      "Ġsu": 355,
      "ary": 356,
      "Ġha": 357,
      "ĠIn": 358,
      "ood": 359,
      "iv": 360,
      "ell": 361,
      "pe": 362,
      "ich": 363,
      "Ġwas": 364,
      "Ġle": 365,
      "Ġ3": 366,
      "Ġper": 367,
      "pt": 368,
      "ome": 369,
      "ount": 370,
      "ud": 371,
      "Ġ$": 372,
      "Ġpl": 373,
      "ition": 374,
      "ight": 375,
      "our": 376,
      "'s": 377,
      "per": 378,
      "Ġme": 379,
      "aus": 380,
      "out": 381,
      "Ġab": 382,
      "ong": 383,
      "act": 384,
      "ound": 385,
      "ard": 386,
      "Ġwhe": 387,
      "Ġun": 388,
      "Ġne": 389,
      "ord": 390,
      "ans": 391,
      "Ġinc": 392,
      "ĠSt": 393,
      "ame": 394,
      "are": 395,
      "ber": 396,
      "ust": 397,
      "ice": 398,
      "Ġwe": 399,
      "og": 400,
      "du": 401,
      "ide": 402,
      "cc": 403,
      "ical": 404,
      "Ġnot": 405,
      "ag": 406,
      "Ġwhich": 407,
      "Ġhave": 408,
      "orm": 409,
      "ip": 410,
      "ial": 411,
      "ĠJ": 412,
      "..": 413,
      "Ġcomp": 414,
      "ff": 415,
      "one": 416,
      "Ġsy": 417,
      "ake": 418,
      "iz": 419,
      "ther": 420,
      "Ġhow": 421,
      "Ġad": 422,
      "Ġcont": 423,
      "ire": 424,
      "Ġ4": 425,
      "up": 426,
      "gh": 427,
      "ase": 428,
      "Ġwill": 429,
      "ates": 430,
      "so": 431,
      "ous": 432,
      "pl": 433,
      "ass": 434,
      "Ġyear": 435,
      "Ġcl": 436,
      "ens": 437,
      "ĠIt": 438,
      "ru": 439,
      "ĠWh": 440,
      "ks": 441,
      "Ġthis": 442,
      "ree": 443,
      ").": 444,
      "Ġhas": 445,
      "Ġj": 446,
      "ough": 447,
      "Ġdis": 448,
      "Ġ20": 449,
      "any": 450,
      "Ġone": 451,
      "ef": 452,
      "ĠTh": 453,
      "ep": 454,
      "ew": 455,
      "Ġdoes": 456,
      "ould": 457,
      "der": 458,
      "ĠAn": 459,
      "ry": 460,
      "ĠÃ¢": 461,
      "ction": 462,
      "ĠV": 463,
      "erm": 464,
      "fer": 465,
      "Ġwor": 466,
      "ap": 467,
      "ime": 468,
      "ance": 469,
      "Ġbl": 470,
      "Ġall": 471,
      "own": 472,
      "Ġmore": 473,
      "ue": 474,
      "Ġ5": 475,
      "Ġapp": 476,
      "Ġen": 477,
      "Ġint": 478,
      "ÂĢÂĻ": 479,
      "ib": 480,
      "Ġcaus": 481,
      "Ġsp": 482,
      "Ġres": 483,
      "ok": 484,
      "ĠY": 485,
      "Ġar": 486,
      "Ġalso": 487,
      "verage": 488,
      "ult": 489,
      "ater": 490,
      "Ġro": 491,
      "Ġother": 492,
      "ind": 493,
      "ence": 494,
      "mer": 495,
      "ik": 496,
      "ick": 497,
      "ĠK": 498,
      "able": 499,
      "Ġday": 500,
      "ach": 501,
      "Ġused": 502,
      "ile": 503,
      "ose": 504,
      "reat": 505,
      "erv": 506,
      "Ġ19": 507,
      "ub": 508,
      "Ġwhen": 509,
      "vel": 510,
      "ail": 511,
      "ren": 512,
      "Ġfl": 513,
      "Ġbut": 514,
      "Ġup": 515,
      "we": 516,
      "ish": 517,
      "Ġty": 518,
      "Ġabout": 519,
      "Ġco": 520,
      "ack": 521,
      "ite": 522,
      "lud": 523,
      "Ġ-": 524,
      "Ġcost": 525,
      "Ġ201": 526,
      "ĠWhat": 527,
      "ian": 528,
      "Ġmost": 529,
      "Ġph": 530,
      "Ġlong": 531,
      "ph": 532,
      "ions": 533,
      "ric": 534,
      "Ġpre": 535,
      "Ġkn": 536,
      "ll": 537,
      "av": 538,
      "ob": 539,
      "ĠHow": 540,
      "Ġthan": 541,
      "ĠUn": 542,
      "Ġinf": 543,
      "Ġim": 544,
      "Ġ6": 545,
      "Ġaverage": 546,
      "ang": 547,
      "ond": 548,
      "ress": 549,
      "ax": 550,
      "Ġmay": 551,
      "Ġpe": 552,
      "Ġinclud": 553,
      "ace": 554,
      "Ġsal": 555,
      "les": 556,
      "Ġwho": 557,
      "000": 558,
      "Ġdef": 559,
      "ents": 560,
      "ck": 561,
      "Ġcol": 562,
      "ign": 563,
      "Ġname": 564,
      "row": 565,
      "ations": 566,
      "irst": 567,
      "Ġbet": 568,
      "Ġgr": 569,
      "Ġfe": 570,
      "Ġpart": 571,
      "Ġte": 572,
      "ĠCh": 573,
      "te": 574,
      "Ġnum": 575,
      "ely": 576,
      "Ġout": 577,
      "Ġloc": 578,
      "ild": 579,
      "very": 580,
      "ĠThis": 581,
      "port": 582,
      "Ġtra": 583,
      "ors": 584,
      "ne": 585,
      "Ġso": 586,
      "Ġac": 587,
      "ory": 588,
      "inition": 589,
      "Ġits": 590,
      "stem": 591,
      "ie": 592,
      "uch": 593,
      "anc": 594,
      "Ġcall": 595,
      "pec": 596,
      "Ġform": 597,
      "ular": 598,
      "Ġmean": 599,
      "Ġcomm": 600,
      "Ġthey": 601,
      "ons": 602,
      "ÃĤ": 603,
      "Ġfirst": 604,
      "Ġtw": 605,
      "int": 606,
      "oll": 607,
      "Ġprodu": 608,
      "ople": 609,
      "ited": 610,
      "Ġtime": 611,
      "Ġsome": 612,
      "ween": 613,
      "Ġqu": 614,
      "hen": 615,
      "Ġsc": 616,
      "Ġinto": 617,
      "ange": 618,
      "ounty": 619,
      "ual": 620,
      "cess": 621,
      "Ġmed": 622,
      "Ġam": 623,
      "Ġacc": 624,
      "its": 625,
      "Ġpr": 626,
      "Ġtheir": 627,
      "),": 628,
      "ike": 629,
      "Ġbetween": 630,
      "ĠRe": 631,
      "lect": 632,
      "Ġmo": 633,
      "Ġover": 634,
      "tern": 635,
      "Ġbec": 636,
      "ys": 637,
      "Ġmany": 638,
      "Ġag": 639,
      "Ġdif": 640,
      "Ġgen": 641,
      "dition": 642,
      "ram": 643,
      "Ġif": 644,
      "red": 645,
      "Ġra": 646,
      "orn": 647,
      "ings": 648,
      "Ġmon": 649,
      "olog": 650,
      "Ġgo": 651,
      "urn": 652,
      "Ġyears": 653,
      "ually": 654,
      "ĠIf": 655,
      "Ġpeople": 656,
      "Ġmuch": 657,
      "fter": 658,
      "iver": 659,
      "land": 660,
      "ins": 661,
      "Ġche": 662,
      "ating": 663,
      "Ġ8": 664,
      "ven": 665,
      "Ġget": 666,
      "aw": 667,
      "ather": 668,
      "ific": 669,
      "iss": 670,
      "Ġcons": 671,
      "ffect": 672,
      "Ġtwo": 673,
      "ade": 674,
      "Ġsystem": 675,
      "Ġnumber": 676,
      "Ġsm": 677,
      "ark": 678,
      "meric": 679,
      "Ġoff": 680,
      "ody": 681,
      "hes": 682,
      "ature": 683,
      "old": 684,
      "uc": 685,
      "enc": 686,
      "Ġblood": 687,
      "ten": 688,
      "rit": 689,
      "Ġmin": 690,
      "Ġact": 691,
      "Ġcar": 692,
      "Ġneed": 693,
      "ple": 694,
      "Ġcell": 695,
      "als": 696,
      "Ġhour": 697,
      "ere": 698,
      "ower": 699,
      "Ġrec": 700,
      "ics": 701,
      "arg": 702,
      "Ġpop": 703,
      "Ġtr": 704,
      "Ġany": 705,
      "Ġshould": 706,
      "Ġcalled": 707,
      "Ġ10": 708,
      "Ġind": 709,
      "ium": 710,
      "lic": 711,
      "Ġ7": 712,
      "ert": 713,
      "oth": 714,
      "Ġtem": 715,
      "Ġear": 716,
      "Ġdes": 717,
      "ĠCon": 718,
      "Ġuse": 719,
      "Ġtyp": 720,
      "ook": 721,
      "ĠAmeric": 722,
      "ĠSe": 723,
      "ym": 724,
      "ĠAs": 725,
      "ix": 726,
      "rough": 727,
      "oy": 728,
      "Ġwhere": 729,
      "uring": 730,
      "Ġdep": 731,
      "ause": 732,
      "Ġthere": 733,
      "eth": 734,
      "Ġwork": 735,
      "Ġsub": 736,
      "Ġrel": 737,
      "Ġdiffer": 738,
      "ĠEn": 739,
      "Ġsuch": 740,
      "Ġreg": 741,
      "Ġspec": 742,
      "ulation": 743,
      "ts": 744,
      "Ġfood": 745,
      "Ġwater": 746,
      "ari": 747,
      "ments": 748,
      "Ġafter": 749,
      "Ġunder": 750,
      "ased": 751,
      "gan": 752,
      "ĠAl": 753,
      "Ġtemper": 754,
      "Ġbody": 755,
      "Ġass": 756,
      "Ġmonth": 757,
      "alth": 758,
      "Ġthrough": 759,
      "ĠHe": 760,
      "Ġterm": 761,
      "Ġfound": 762,
      "acter": 763,
      "ĠUnited": 764,
      "Ġrequ": 765,
      "Ġem": 766,
      "ink": 767,
      "ĠCounty": 768,
      "rib": 769,
      "Ġtake": 770,
      "Ġno": 771,
      "ock": 772,
      "Ġhigh": 773,
      "erson": 774,
      "ures": 775,
      "Ġins": 776,
      "Ġlike": 777,
      "ays": 778,
      "Ġknown": 779,
      "Ġcommon": 780,
      "Ġmake": 781,
      "Ġdi": 782,
      "oms": 783,
      "Ġpo": 784,
      "Ġonly": 785,
      "ft": 786,
      "Ġserv": 787,
      "wn": 788,
      "Ġhel": 789,
      "ĠWe": 790,
      "eral": 791,
      "ĠThere": 792,
      "ÂĢÂĵ": 793,
      "ron": 794,
      "...": 795,
      "Ġsec": 796,
      "Ġnew": 797,
      "Ġbeen": 798,
      "Ġexp": 799,
      "ise": 800,
      "ism": 801,
      "Ġsk": 802,
      "ily": 803,
      "ĠYou": 804,
      "ically": 805,
      "oss": 806,
      "ĠStates": 807,
      "Ġsym": 808,
      "ork": 809,
      "Ġdays": 810,
      "vi": 811,
      "Ġhis": 812,
      "Ġmus": 813,
      "ject": 814,
      "Ġsur": 815,
      "ational": 816,
      "Ġprov": 817,
      "Ġhelp": 818,
      "ool": 819,
      "ove": 820,
      "ex": 821,
      "Ġmade": 822,
      "co": 823,
      "cent": 824,
      "gs": 825,
      "50": 826,
      "Ġcal": 827,
      "Ġcause": 828,
      "Ġbu": 829,
      "Ġ18": 830,
      "Ġdefinition": 831,
      "ty": 832,
      "ows": 833,
      "Ġmil": 834,
      "ĠFor": 835,
      "Ġinter": 836,
      "ĠNew": 837,
      "Ġ9": 838,
      "ĠCom": 839,
      "imes": 840,
      "ced": 841,
      "ict": 842,
      "ĠCl": 843,
      "Ġpres": 844,
      "ution": 845,
      "ption": 846,
      "ility": 847,
      "ash": 848,
      "fore": 849,
      "inal": 850,
      "Ġlocated": 851,
      "hed": 852,
      "ient": 853,
      "ath": 854,
      "ract": 855,
      "ants": 856,
      "erg": 857,
      "Ġbel": 858,
      "form": 859,
      "Ġprocess": 860,
      "ull": 861,
      "Ġtest": 862,
      "Ġwee": 863,
      "io": 864,
      "Ġthen": 865,
      "ities": 866,
      "yd": 867,
      "ĠPro": 868,
      "Ġstate": 869,
      "outh": 870,
      "ĠDef": 871,
      "Ġocc": 872,
      "Ġthem": 873,
      "Ġperson": 874,
      "Ġtax": 875,
      "Ġpain": 876,
      "ĠAt": 877,
      "yl": 878,
      "ines": 879,
      "tal": 880,
      "arm": 881,
      "ton": 882,
      "ize": 883,
      "vent": 884,
      "Ġmet": 885,
      "Ġtreat": 886,
      "ĠUS": 887,
      "ness": 888,
      "ĠSh": 889,
      "akes": 890,
      "Ġfun": 891,
      "Ġpay": 892,
      "Ġsmall": 893,
      "ble": 894,
      "ĠAd": 895,
      "ident": 896,
      "ptoms": 897,
      "Ġcauses": 898,
      "bs": 899,
      "ative": 900,
      "oup": 901,
      "Ġstart": 902,
      "cl": 903,
      "com": 904,
      "ĠAr": 905,
      "Ġoften": 906,
      "Ġinst": 907,
      "Ġchar": 908,
      "ee": 909,
      "Ġtrans": 910,
      "ied": 911,
      "Ġcur": 912,
      "Ġtype": 913,
      "ces": 914,
      "Ġsim": 915,
      "orth": 916,
      "Ġdeg": 917,
      "Ġusually": 918,
      "Ġtemperature": 919,
      "cle": 920,
      "ever": 921,
      "gl": 922,
      "Ġduring": 923,
      "Ġchild": 924,
      "Ġwere": 925,
      "Ġmy": 926,
      "air": 927,
      "Ġman": 928,
      "Ġdise": 929,
      "Ġmeaning": 930,
      "Ġorgan": 931,
      "aking": 932,
      "ank": 933,
      "Ġword": 934,
      "Ġwould": 935,
      "Ġhours": 936,
      "ices": 937,
      "Ġinclude": 938,
      "pr": 939,
      "sw": 940,
      "ros": 941,
      "Ġadd": 942,
      "rain": 943,
      "ible": 944,
      "Ġaround": 945,
      "ages": 946,
      "Ġvery": 947,
      "ars": 948,
      "Ġcontain": 949,
      "ases": 950,
      "Ġthree": 951,
      "Ġret": 952,
      "ox": 953,
      "Ġeach": 954,
      "ĠAmerican": 955,
      "Ġent": 956,
      "ting": 957,
      "Ġage": 958,
      "Ġgrow": 959,
      "Ġmod": 960,
      "Ġcity": 961,
      "other": 962,
      "chool": 963,
      "ute": 964,
      "Ġarea": 965,
      "Ġext": 966,
      "Ġwell": 967,
      "Ġ0": 968,
      "Ġref": 969,
      "ĠEx": 970,
      "Ġvari": 971,
      "Ġsalary": 972,
      "Ġpopulation": 973,
      "Ġbefore": 974,
      "Ġinform": 975,
      "tic": 976,
      "els": 977,
      "ider": 978,
      "Ġthese": 979,
      "Ġsupp": 980,
      "ology": 981,
      "Ġset": 982,
      "ides": 983,
      "Ġappro": 984,
      "Ġdepend": 985,
      "Ġdifferent": 986,
      "Ġke": 987,
      "ving": 988,
      "Ġ12": 989,
      "Ġstud": 990,
      "ah": 991,
      "iness": 992,
      "Ġ&": 993,
      "Ġcondition": 994,
      "Ġjust": 995,
      "Ġbecause": 996,
      "vol": 997,
      "Ġaut": 998,
      "ctor": 999,
      "Ġhome": 1000,
      "Ġoccur": 1001,
      "oot": 1002,
      "ection": 1003,
      "10": 1004,
      "Ġsa": 1005,
      "Ġser": 1006,
      "Ġdist": 1007,
      "Ġeffect": 1008,
      "Ġexam": 1009,
      "ĠPl": 1010,
      "velop": 1011,
      "ale": 1012,
      "Ġrep": 1013,
      "Ġgood": 1014,
      "ording": 1015,
      "Ġfam": 1016,
      "Ġatt": 1017,
      "Ġbr": 1018,
      "Ġlast": 1019,
      "ife": 1020,
      "rent": 1021,
      "ral": 1022,
      "Ġelect": 1023,
      "ning": 1024,
      "Ġrem": 1025,
      "Ġlevel": 1026,
      "Ġinformation": 1027,
      "ved": 1028,
      "Ġrequire": 1029,
      "Ġsl": 1030,
      "Ġben": 1031,
      "Ġdet": 1032,
      "ĠWhen": 1033,
      "ĠDe": 1034,
      "Ġhealth": 1035,
      "Ġworld": 1036,
      "ollow": 1037,
      "Ġhum": 1038,
      "day": 1039,
      "ÂĢÂĿ": 1040,
      "Ġour": 1041,
      "Ġplan": 1042,
      "Ġmeans": 1043,
      "Ġorig": 1044,
      "'t": 1045,
      "Ġair": 1046,
      "Ġsign": 1047,
      "ouse": 1048,
      "iod": 1049,
      "Ġgl": 1050,
      "oci": 1051,
      "cer": 1052,
      "hip": 1053,
      "Ġcent": 1054,
      "Ġval": 1055,
      "Ġest": 1056,
      "ÂĢÂľ": 1057,
      "Ġpercent": 1058,
      "Ġbre": 1059,
      "Ġdec": 1060,
      "ĠOn": 1061,
      "__": 1062,
      "Ġpol": 1063,
      "rop": 1064,
      "omet": 1065,
      "Ġsever": 1066,
      "Ġback": 1067,
      "ode": 1068,
      "ĠBe": 1069,
      "ĠDefinition": 1070,
      "Â°": 1071,
      "Ġsymptoms": 1072,
      "bers": 1073,
      "tle": 1074,
      "ids": 1075,
      "Ġresult": 1076,
      "Ġincluding": 1077,
      "Ġgroup": 1078,
      "Ġwhile": 1079,
      "ploy": 1080,
      "rees": 1081,
      "Ġcount": 1082,
      "Ġmem": 1083,
      "ural": 1084,
      "oh": 1085,
      "ted": 1086,
      "Ġevery": 1087,
      "Ġstand": 1088,
      "Ġ200": 1089,
      "ized": 1090,
      "ward": 1091,
      "Ġcre": 1092,
      "Ġmain": 1093,
      "Ġtotal": 1094,
      "ency": 1095,
      "Ġsecond": 1096,
      "Ġdid": 1097,
      "ists": 1098,
      "Ġsol": 1099,
      "Ġrate": 1100,
      "Ġamount": 1101,
      "ues": 1102,
      "Ġfil": 1103,
      "Ġhig": 1104,
      "Ġcomple": 1105,
      "ĠPh": 1106,
      "Ġold": 1107,
      "ĠMe": 1108,
      "Ġdevelop": 1109,
      "Ġknow": 1110,
      "gen": 1111,
      "Ġ15": 1112,
      "Ġfact": 1113,
      "Ġskin": 1114,
      "the": 1115,
      "Ġher": 1116,
      "Ġend": 1117,
      "Ġsee": 1118,
      "Ġresp": 1119,
      "get": 1120,
      "Ġ:": 1121,
      "ately": 1122,
      "Ġob": 1123,
      "Ġfree": 1124,
      "Ġcells": 1125,
      "20": 1126,
      "ety": 1127,
      "here": 1128,
      "Ġbo": 1129,
      "Ġschool": 1130,
      "Ġproduct": 1131,
      "ata": 1132,
      "Ġright": 1133,
      "Ġbenef": 1134,
      "ĠCal": 1135,
      "ined": 1136,
      "Ġequ": 1137,
      "ger": 1138,
      "ason": 1139,
      "Ġlarg": 1140,
      "swer": 1141,
      "ivid": 1142,
      "NA": 1143,
      "cul": 1144,
      "Ġant": 1145,
      "usiness": 1146,
      "ergy": 1147,
      "line": 1148,
      "Ġpass": 1149,
      "glish": 1150,
      "The": 1151,
      "ug": 1152,
      "ories": 1153,
      "Ġbeing": 1154,
      "ters": 1155,
      "gram": 1156,
      "Ġ/": 1157,
      "ĠBl": 1158,
      "Ġsame": 1159,
      "Ġperiod": 1160,
      "ves": 1161,
      "Ġav": 1162,
      "Ġrange": 1163,
      "reen": 1164,
      "ÂĢÂĶ": 1165,
      "illion": 1166,
      "Ġown": 1167,
      "ĠSp": 1168,
      "Ġhad": 1169,
      "ĠIs": 1170,
      "Ġdisease": 1171,
      "arge": 1172,
      "Ġless": 1173,
      "vers": 1174,
      "Ġside": 1175,
      "aries": 1176,
      "Ġ.": 1177,
      "Ġ30": 1178,
      "Ġplay": 1179,
      "Ġpur": 1180,
      "Ġdown": 1181,
      "Ġusing": 1182,
      "Ġcompany": 1183,
      "Ġi": 1184,
      "ĠTo": 1185,
      "ĠCar": 1186,
      "ams": 1187,
      "Ġimport": 1188,
      "ful": 1189,
      "pen": 1190,
      "Ġbest": 1191,
      "ÂĢÂ¦": 1192,
      "ital": 1193,
      "rol": 1194,
      "utes": 1195,
      "Ġpat": 1196,
      "Ġwithin": 1197,
      "Ġsug": 1198,
      "ives": 1199,
      "Ġclass": 1200,
      "ience": 1201,
      "Ġve": 1202,
      "ont": 1203,
      "Ġfind": 1204,
      "Ġincre": 1205,
      "ormal": 1206,
      "Ġtypes": 1207,
      "Ġma": 1208,
      "Ġlist": 1209,
      "ruct": 1210,
      "Ġboth": 1211,
      "Ġlow": 1212,
      "Ġgra": 1213,
      "ĠLe": 1214,
      "Ġmedic": 1215,
      "ave": 1216,
      "lor": 1217,
      "Ġ'": 1218,
      "Ġrun": 1219,
      "Ġfunction": 1220,
      "Ġlead": 1221,
      "ince": 1222,
      "ĠAcc": 1223,
      "ets": 1224,
      "Ġsyn": 1225,
      "way": 1226,
      "yn": 1227,
      "chn": 1228,
      "ats": 1229,
      "Ġsing": 1230,
      "Ġheart": 1231,
      "ĠMed": 1232,
      "Ġgener": 1233,
      "Ġvis": 1234,
      "br": 1235,
      "ĠQ": 1236,
      "ĠÃĤ": 1237,
      "elf": 1238,
      "ublic": 1239,
      "Ġexper": 1240,
      "ms": 1241,
      "Ġcert": 1242,
      "eld": 1243,
      "Ġrece": 1244,
      "ney": 1245,
      "Ġmiles": 1246,
      "Ġsize": 1247,
      "itis": 1248,
      "amin": 1249,
      "Ġoil": 1250,
      "Ġcare": 1251,
      "ional": 1252,
      "atter": 1253,
      "ense": 1254,
      "Ġ16": 1255,
      "jor": 1256,
      "Ġfollow": 1257,
      "aby": 1258,
      "Ġconsider": 1259,
      "ĠEnglish": 1260,
      "ones": 1261,
      "Ġwom": 1262,
      "ĠMar": 1263,
      "Ġmeas": 1264,
      "ensus": 1265,
      "Ġjob": 1266,
      "Ġway": 1267,
      "ĠCan": 1268,
      "amp": 1269,
      "Ġenergy": 1270,
      "ivers": 1271,
      "cri": 1272,
      "ke": 1273,
      "vern": 1274,
      "Ġprote": 1275,
      "ustom": 1276,
      "und": 1277,
      "Ġweather": 1278,
      "Ġeven": 1279,
      "rap": 1280,
      "ious": 1281,
      "Ġaffect": 1282,
      "Ġemploy": 1283,
      "Ġbusiness": 1284,
      "ĠCol": 1285,
      "Ġshe": 1286,
      "Ġmust": 1287,
      "Ġpoint": 1288,
      "inc": 1289,
      "Ġdire": 1290,
      "imum": 1291,
      "Ġdesign": 1292,
      "Ġsw": 1293,
      "Ġbased": 1294,
      "ĠNorth": 1295,
      "Ġfeet": 1296,
      "Ġmen": 1297,
      "eter": 1298,
      "osis": 1299,
      "Ġed": 1300,
      "Ġcurrent": 1301,
      "Ãī": 1302,
      "uro": 1303,
      "ĠAll": 1304,
      "Ġplace": 1305,
      "Ġcr": 1306,
      "Ġbacter": 1307,
      "Ġlit": 1308,
      "iving": 1309,
      "ration": 1310,
      "Ġz": 1311,
      "ality": 1312,
      "Ġhand": 1313,
      "iqu": 1314,
      "angu": 1315,
      "Ġmonths": 1316,
      "Ġgu": 1317,
      "ĠInd": 1318,
      "19": 1319,
      "xt": 1320,
      "Ġlaw": 1321,
      "osed": 1322,
      "oint": 1323,
      "ator": 1324,
      "ane": 1325,
      "Ġpot": 1326,
      "Ġdon": 1327,
      "Ġprice": 1328,
      "gin": 1329,
      "Ġur": 1330,
      "Ġservice": 1331,
      "--": 1332,
      "ier": 1333,
      "mon": 1334,
      "por": 1335,
      "Ġanim": 1336,
      "Ġlo": 1337,
      "ross": 1338,
      "Ġimportant": 1339,
      "12": 1340,
      "ization": 1341,
      "anges": 1342,
      "Ġdegrees": 1343,
      "pro": 1344,
      "Ġbas": 1345,
      "ames": 1346,
      "Ġ14": 1347,
      "til": 1348,
      "earch": 1349,
      "Ġfamily": 1350,
      "ially": 1351,
      "vis": 1352,
      "Ġdri": 1353,
      "ĠAm": 1354,
      "ots": 1355,
      "gn": 1356,
      "oes": 1357,
      "yp": 1358,
      "ann": 1359,
      "enn": 1360,
      "Ġcaused": 1361,
      "Ġtypically": 1362,
      "az": 1363,
      "read": 1364,
      "Ġaccount": 1365,
      "Ġmajor": 1366,
      "xim": 1367,
      "cy": 1368,
      "of": 1369,
      "oid": 1370,
      "Ġann": 1371,
      "Ġnow": 1372,
      "une": 1373,
      "Ġproper": 1374,
      "Ġbelow": 1375,
      "15": 1376,
      "Ġproble": 1377,
      "ified": 1378,
      "ounds": 1379,
      "mical": 1380,
      "Ãĥ": 1381,
      "ino": 1382,
      "Ġdr": 1383,
      "Ġland": 1384,
      "Ġweeks": 1385,
      "au": 1386,
      "Ġlarge": 1387,
      "ina": 1388,
      "ury": 1389,
      "less": 1390,
      "Ġsqu": 1391,
      "Ġexample": 1392,
      "mit": 1393,
      "hest": 1394,
      "Ġwant": 1395,
      "Ġbrain": 1396,
      "Ġlife": 1397,
      "etic": 1398,
      "Ġminutes": 1399,
      "man": 1400,
      "Ġhead": 1401,
      "Ġchange": 1402,
      "Ġ|": 1403,
      "Ġtiss": 1404,
      "Ġcor": 1405,
      "ote": 1406,
      "ĠThese": 1407,
      "ĠTr": 1408,
      "Ġele": 1409,
      "Ġgreat": 1410,
      "crib": 1411,
      "Ġtop": 1412,
      "Ġlook": 1413,
      "Ġred": 1414,
      "ĠEar": 1415,
      "Ġweight": 1416,
      "ining": 1417,
      "Ġfat": 1418,
      "Ġfour": 1419,
      "Ġfull": 1420,
      "Ġorigin": 1421,
      "Ġlargest": 1422,
      "ior": 1423,
      "Ġsun": 1424,
      "Ġnon": 1425,
      "Ġvit": 1426,
      "Ġcle": 1427,
      "Ġreact": 1428,
      "Ġuntil": 1429,
      "Ġopen": 1430,
      "Ġcounty": 1431,
      "Ġanother": 1432,
      "ley": 1433,
      "ĠThey": 1434,
      "af": 1435,
      "cept": 1436,
      "lam": 1437,
      "stit": 1438,
      "ĠOr": 1439,
      "Ġmove": 1440,
      "atic": 1441,
      "Ġdata": 1442,
      "Ġwithout": 1443,
      "Ġleg": 1444,
      "Ġcook": 1445,
      "Ġweek": 1446,
      "Ġseveral": 1447,
      "atures": 1448,
      "Ġthose": 1449,
      "Ġstr": 1450,
      "Ġcheck": 1451,
      "30": 1452,
      "Ġbaby": 1453,
      "ĠFr": 1454,
      "upp": 1455,
      "Ġcy": 1456,
      "Ġlive": 1457,
      "Ġlight": 1458,
      "Ġey": 1459,
      "Ġprogram": 1460,
      "de": 1461,
      "Ġtimes": 1462,
      "Ġkeep": 1463,
      "Ġcould": 1464,
      "Ġfew": 1465,
      "Ġpost": 1466,
      "ird": 1467,
      "con": 1468,
      "Ġpress": 1469,
      "Ġ50": 1470,
      "Ġcharacter": 1471,
      "Ġpower": 1472,
      "Ġprot": 1473,
      "redit": 1474,
      "Ġavail": 1475,
      "gth": 1476,
      "ps": 1477,
      "Ġpa": 1478,
      "Ġrefer": 1479,
      "ometimes": 1480,
      "ĠHowever": 1481,
      "Ġagain": 1482,
      "ule": 1483,
      "itive": 1484,
      "Ġpar": 1485,
      "Ġdru": 1486,
      "ĠCA": 1487,
      "Ġshow": 1488,
      "Ġdam": 1489,
      "ille": 1490,
      "Ġ25": 1491,
      "iforn": 1492,
      "Ġflu": 1493,
      "Ġcosts": 1494,
      "60": 1495,
      "nect": 1496,
      "ries": 1497,
      "ĠZ": 1498,
      "Ġspe": 1499,
      "Ġrele": 1500,
      "Ġeas": 1501,
      "Ġwhite": 1502,
      "osp": 1503,
      "Ġacid": 1504,
      "Ġassoci": 1505,
      "gine": 1506,
      "Ġel": 1507,
      "ination": 1508,
      "Ġnet": 1509,
      "ĠCity": 1510,
      "ĠSal": 1511,
      "ividual": 1512,
      "ifornia": 1513,
      "dom": 1514,
      "ither": 1515,
      "ern": 1516,
      "Ġfoot": 1517,
      "Ġbi": 1518,
      "Ġcontin": 1519,
      "Ġphys": 1520,
      "Ġmedical": 1521,
      "Ġmuscle": 1522,
      "ring": 1523,
      "Ġlangu": 1524,
      "iron": 1525,
      "Ġcolor": 1526,
      "Ġtechn": 1527,
      "Ġconsidered": 1528,
      "ximately": 1529,
      "atch": 1530,
      "Ġcour": 1531,
      "Ġmole": 1532,
      "25": 1533,
      "ield": 1534,
      "Ãĭ": 1535,
      "Ġfin": 1536,
      "Ġmark": 1537,
      "Ġren": 1538,
      "Ġsingle": 1539,
      "mber": 1540,
      "tain": 1541,
      "Ġplant": 1542,
      "aterial": 1543,
      "rown": 1544,
      "Ġgovern": 1545,
      "ĠCent": 1546,
      "Ġrest": 1547,
      "view": 1548,
      "RA": 1549,
      "ner": 1550,
      "Ġ17": 1551,
      "Ġchildren": 1552,
      "Ġes": 1553,
      "aning": 1554,
      "ĠSo": 1555,
      "uter": 1556,
      "ĠPre": 1557,
      "ĠWor": 1558,
      "ended": 1559,
      "Ġleast": 1560,
      "Ġspecific": 1561,
      "Ġmeasure": 1562,
      "isk": 1563,
      "Ġfore": 1564,
      "oney": 1565,
      "Ġpartic": 1566,
      "Ġbecome": 1567,
      "Ġbuild": 1568,
      "Ġsugar": 1569,
      "11": 1570,
      "ished": 1571,
      "Ġhist": 1572,
      "Ġhouse": 1573,
      "ental": 1574,
      "ĠNe": 1575,
      "Ġ2010": 1576,
      "Ġtreatment": 1577,
      "Ġbenefits": 1578,
      "Ġsquare": 1579,
      "Ġmillion": 1580,
      "Ġreport": 1581,
      "Ġactiv": 1582,
      "ething": 1583,
      "Ġsour": 1584,
      "Ġcensus": 1585,
      "Ġmaterial": 1586,
      "Ġhard": 1587,
      "ĠPe": 1588,
      "ape": 1589,
      "ware": 1590,
      "ĠTe": 1591,
      "Ġnear": 1592,
      "Ġrepl": 1593,
      "Ġste": 1594,
      "val": 1595,
      "Ġ...": 1596,
      "Ġwrit": 1597,
      "Ġmar": 1598,
      "Ġnormal": 1599,
      "ables": 1600,
      "Ġshort": 1601,
      "Ġdisord": 1602,
      "ditional": 1603,
      "Ġindividual": 1604,
      "urope": 1605,
      "ients": 1606,
      "Ġhot": 1607,
      "ĠAb": 1608,
      "ĠState": 1609,
      "Ġphone": 1610,
      "Ġsupport": 1611,
      "18": 1612,
      "Ġcard": 1613,
      "Ġlab": 1614,
      "Ġlower": 1615,
      "ĠSc": 1616,
      "raw": 1617,
      "ends": 1618,
      "Ġchemical": 1619,
      "ucle": 1620,
      "Ġapproximately": 1621,
      "Ġavailable": 1622,
      "to": 1623,
      "Ġcap": 1624,
      "estion": 1625,
      "oph": 1626,
      "Ġcome": 1627,
      "Ġplants": 1628,
      "ĠCont": 1629,
      "apt": 1630,
      "Ġcustom": 1631,
      "osition": 1632,
      "Ġprim": 1633,
      "bo": 1634,
      "Ġprotein": 1635,
      "Ġprof": 1636,
      "icken": 1637,
      "Ġsom": 1638,
      "idd": 1639,
      "ĠMost": 1640,
      "ĠBut": 1641,
      "ared": 1642,
      "ffic": 1643,
      "Ġlocal": 1644,
      "Ġsubst": 1645,
      "icro": 1646,
      "roll": 1647,
      "amed": 1648,
      "raph": 1649,
      "Ġimm": 1650,
      "Ġearly": 1651,
      "Ġstandard": 1652,
      "Ġlim": 1653,
      "ocial": 1654,
      "ĠGr": 1655,
      "aren": 1656,
      "ctions": 1657,
      "Ġpopular": 1658,
      "Ġdepending": 1659,
      "40": 1660,
      "Ġpublic": 1661,
      "ential": 1662,
      "ĠSome": 1663,
      "ĠGen": 1664,
      "ĠCalifornia": 1665,
      "35": 1666,
      "ĠMan": 1667,
      "ability": 1668,
      "ĠGerm": 1669,
      "Ġreturn": 1670,
      "Ġcertain": 1671,
      "work": 1672,
      "Ġstates": 1673,
      "ĠJoh": 1674,
      "Ġaccording": 1675,
      "ission": 1676,
      "Ġearn": 1677,
      "Ġcalories": 1678,
      "ydro": 1679,
      "eding": 1680,
      "ĠCo": 1681,
      "Ġeither": 1682,
      "ĠMay": 1683,
      "ored": 1684,
      "Ġabove": 1685,
      "iction": 1686,
      "Ġwomen": 1687,
      "most": 1688,
      "Ġnat": 1689,
      "ĠServ": 1690,
      "Ġvol": 1691,
      "Ġcomb": 1692,
      "Ġbacteria": 1693,
      "cles": 1694,
      "omm": 1695,
      "Ġnut": 1696,
      "Ġread": 1697,
      "urs": 1698,
      "Ġorder": 1699,
      "umb": 1700,
      "Ġinfection": 1701,
      "Ġfoods": 1702,
      "cription": 1703,
      "Ġturn": 1704,
      "Ġbro": 1705,
      "Ġintern": 1706,
      "Ġiss": 1707,
      "Ġeg": 1708,
      "ada": 1709,
      "ement": 1710,
      "Ġincome": 1711,
      "....": 1712,
      "Ġcontrol": 1713,
      "17": 1714,
      "Ġposs": 1715,
      "uss": 1716,
      "stru": 1717,
      "Ġeat": 1718,
      "resh": 1719,
      "Ġhair": 1720,
      "Ġ40": 1721,
      "ĠAnd": 1722,
      "Ġfollowing": 1723,
      "iversity": 1724,
      "ison": 1725,
      "ĠRes": 1726,
      "Ġ199": 1727,
      "Ġcover": 1728,
      "Ġoccurs": 1729,
      "Ġproducts": 1730,
      "me": 1731,
      "Ġdig": 1732,
      "Ġ100": 1733,
      "ĠMount": 1734,
      "irl": 1735,
      "ĠRo": 1736,
      "ĠEurope": 1737,
      "ĠYour": 1738,
      "ĠYork": 1739,
      "Ġgeneral": 1740,
      "iew": 1741,
      "Â·": 1742,
      "ask": 1743,
      "ĠGe": 1744,
      "Ġkid": 1745,
      "hol": 1746,
      "iber": 1747,
      "Ãİ": 1748,
      "Ġcode": 1749,
      "ush": 1750,
      "ĠDep": 1751,
      "Ġvary": 1752,
      "ethod": 1753,
      "Ġhuman": 1754,
      "Ġexperience": 1755,
      "Ġtissue": 1756,
      "Ġassociated": 1757,
      "hor": 1758,
      "vest": 1759,
      "Ġtakes": 1760,
      "Ġsince": 1761,
      "Ġpast": 1762,
      "ederal": 1763,
      "Ġmult": 1764,
      "Ġredu": 1765,
      "Ġwhy": 1766,
      "Ġstat": 1767,
      "Ġstruct": 1768,
      "Ġapplic": 1769,
      "Ġconditions": 1770,
      "Ġhigher": 1771,
      "ĠEarth": 1772,
      "par": 1773,
      "Ġ,": 1774,
      "Ġsomething": 1775,
      "Ġver": 1776,
      "Ġox": 1777,
      "aly": 1778,
      "lex": 1779,
      "ĠSouth": 1780,
      "urance": 1781,
      "hern": 1782,
      "Ġ2015": 1783,
      "Ġrecord": 1784,
      "Ġwords": 1785,
      "ai": 1786,
      "led": 1787,
      "Ġ=": 1788,
      "Ġhal": 1789,
      "500": 1790,
      "atory": 1791,
      "Ġsum": 1792,
      "Ġwind": 1793,
      "ĠAg": 1794,
      "ĠApr": 1795,
      "Ġ24": 1796,
      "ify": 1797,
      "istics": 1798,
      "Ġhere": 1799,
      "ains": 1800,
      "Ġdifference": 1801,
      "Ġspecial": 1802,
      "Ġdiet": 1803,
      "ilar": 1804,
      "Ġthough": 1805,
      "Ġ11": 1806,
      "Ġconf": 1807,
      "Ġexpl": 1808,
      "oon": 1809,
      "ateg": 1810,
      "resent": 1811,
      "ification": 1812,
      "ences": 1813,
      "Ġcarb": 1814,
      "app": 1815,
      "ump": 1816,
      "ried": 1817,
      "Ġprovide": 1818,
      "lo": 1819,
      "ester": 1820,
      "alk": 1821,
      "Ġmix": 1822,
      "Ġdue": 1823,
      "Ġreal": 1824,
      "ills": 1825,
      "ST": 1826,
      "Ġoper": 1827,
      "Ġborn": 1828,
      "ĠTime": 1829,
      "omes": 1830,
      "ĠApp": 1831,
      "Ġindust": 1832,
      "Ġcommonly": 1833,
      "Ġhighest": 1834,
      "ĠAccording": 1835,
      "ĠJohn": 1836,
      "ling": 1837,
      "Ġide": 1838,
      "though": 1839,
      "Ġdev": 1840,
      "ĠOne": 1841,
      "ived": 1842,
      "Ġperform": 1843,
      "Ġdegree": 1844,
      "ister": 1845,
      "ĠWith": 1846,
      "ume": 1847,
      "Ġappear": 1848,
      "Ġengine": 1849,
      "ances": 1850,
      "ville": 1851,
      "Ġbig": 1852,
      "imate": 1853,
      "abet": 1854,
      "ĠNational": 1855,
      "Ġcomes": 1856,
      "Ġdog": 1857,
      "ender": 1858,
      "iven": 1859,
      "Ġinches": 1860,
      "ĠAnswer": 1861,
      "Ġlonger": 1862,
      "Ġpressure": 1863,
      "80": 1864,
      "ma": 1865,
      "Ġmight": 1866,
      "Ġdry": 1867,
      "ĠEd": 1868,
      "min": 1869,
      "Ġsn": 1870,
      "Ġsometimes": 1871,
      "ĠCost": 1872,
      "Ġgre": 1873,
      "'re": 1874,
      "ER": 1875,
      "ees": 1876,
      "fric": 1877,
      "sh": 1878,
      "Ġ[": 1879,
      "Ġfile": 1880,
      "Ġtown": 1881,
      "Ġlun": 1882,
      "unity": 1883,
      "astic": 1884,
      "cohol": 1885,
      "75": 1886,
      "bre": 1887,
      "ec": 1888,
      "Ġsouth": 1889,
      "Ġwar": 1890,
      "Ġbegin": 1891,
      "Ġstill": 1892,
      "Ġseason": 1893,
      "Ġunit": 1894,
      "Ġ2016": 1895,
      "Ġphot": 1896,
      "Ġ60": 1897,
      "Ġspecies": 1898,
      "iation": 1899,
      "Ġbar": 1900,
      "rodu": 1901,
      "Ġgive": 1902,
      "imb": 1903,
      "ĠPr": 1904,
      "ĠIntern": 1905,
      "Ġmeat": 1906,
      "ĠWeather": 1907,
      "ĠComp": 1908,
      "Ġeffects": 1909,
      "ĠWorld": 1910,
      "ystem": 1911,
      "let": 1912,
      "lege": 1913,
      "ster": 1914,
      "Ġev": 1915,
      "ĠPol": 1916,
      "ĠEm": 1917,
      "Ġlet": 1918,
      "Ġleft": 1919,
      "ieve": 1920,
      "Ġproduce": 1921,
      "Ġcountry": 1922,
      "Ġgovernment": 1923,
      "Ġport": 1924,
      "ott": 1925,
      "ĠRep": 1926,
      "aken": 1927,
      "enses": 1928,
      "Ġpresent": 1929,
      "Ġdirect": 1930,
      "ret": 1931,
      "Ġwon": 1932,
      "Ġpract": 1933,
      "Ġloss": 1934,
      "ĠDis": 1935,
      "Ġuses": 1936,
      "Ġable": 1937,
      "Ġlevels": 1938,
      "Ġdel": 1939,
      "ĠAc": 1940,
      "ĠAre": 1941,
      "ĠOf": 1942,
      "Ġrequired": 1943,
      "14": 1944,
      "sy": 1945,
      "ering": 1946,
      "ici": 1947,
      "Ġnucle": 1948,
      "ĠWar": 1949,
      "iff": 1950,
      "Ġvir": 1951,
      "ograph": 1952,
      "Ġoffic": 1953,
      "cast": 1954,
      "cular": 1955,
      "ways": 1956,
      "ÂĻ": 1957,
      "ese": 1958,
      "Ġinvol": 1959,
      "Ġthings": 1960,
      "ological": 1961,
      "ov": 1962,
      "oice": 1963,
      "Ġsix": 1964,
      "Ġmakes": 1965,
      "ĠPer": 1966,
      "Ġnumbers": 1967,
      "ĠSee": 1968,
      "Ġsit": 1969,
      "ania": 1970,
      "ength": 1971,
      "Ġmaking": 1972,
      "ington": 1973,
      "Ġconnect": 1974,
      "Ġcancer": 1975,
      "ression": 1976,
      "Ġdescrib": 1977,
      "ĠAmerica": 1978,
      "Ġcontains": 1979,
      "Ġvalue": 1980,
      "200": 1981,
      "ball": 1982,
      "uff": 1983,
      "Ġfac": 1984,
      "Ġbase": 1985,
      "umber": 1986,
      "Ġhapp": 1987,
      "Ġprevent": 1988,
      "ancy": 1989,
      "Ġrad": 1990,
      "Ġsurf": 1991,
      "Ġdeterm": 1992,
      "bol": 1993,
      "ÂĪ": 1994,
      "Ġhold": 1995,
      "ĠChe": 1996,
      "otes": 1997,
      "Ġheat": 1998,
      "Ġdrink": 1999,
      "Ġvitamin": 2000,
      "TI": 2001,
      "side": 2002,
      "Ġfish": 2003,
      "Ġanswer": 2004,
      "Ġmass": 2005,
      "aster": 2006,
      "ĠAug": 2007,
      "amb": 2008,
      "Ġmuscles": 2009,
      "ĠAtl": 2010,
      "abetes": 2011,
      "lished": 2012,
      "tt": 2013,
      "oud": 2014,
      "ĠTra": 2015,
      "Ġcann": 2016,
      "Ġincludes": 2017,
      "Ġrecomm": 2018,
      "iddle": 2019,
      "gest": 2020,
      "wh": 2021,
      "where": 2022,
      "inary": 2023,
      "ana": 2024,
      "Ġfre": 2025,
      "Ġoffer": 2026,
      "Ġhorm": 2027,
      "omy": 2028,
      "ĠDNA": 2029,
      "ift": 2030,
      "Ġcontrib": 2031,
      "aves": 2032,
      "Ġprofess": 2033,
      "Ġcir": 2034,
      "ĠTex": 2035,
      "Ġep": 2036,
      "ĠDo": 2037,
      "ending": 2038,
      "Ġadv": 2039,
      "ired": 2040,
      "Ġsaf": 2041,
      "Ġagainst": 2042,
      "Ġlanguage": 2043,
      "ĠApril": 2044,
      "Ġtable": 2045,
      "Ġpri": 2046,
      "Ġbond": 2047,
      "Ġmethod": 2048,
      "ĠAct": 2049,
      "ently": 2050,
      "idge": 2051,
      "irth": 2052,
      "Ġparts": 2053,
      "Ġinstall": 2054,
      "16": 2055,
      "Ġfr": 2056,
      "Ġtoo": 2057,
      "Ġgas": 2058,
      "ĠEl": 2059,
      "Ġgrams": 2060,
      "Ġrelated": 2061,
      "Ġorganism": 2062,
      "ĠMeaning": 2063,
      "rapy": 2064,
      "Ġgiven": 2065,
      "ĠFl": 2066,
      "ively": 2067,
      "Ġdisc": 2068,
      "Ġdiff": 2069,
      "ae": 2070,
      "aim": 2071,
      "ires": 2072,
      "ĠFe": 2073,
      "elling": 2074,
      "Ġlear": 2075,
      "Ġprovides": 2076,
      "Ġaddress": 2077,
      "Ġpurp": 2078,
      "Ġcat": 2079,
      "Ġfall": 2080,
      "ilt": 2081,
      "aily": 2082,
      "Ġlocation": 2083,
      "Ġforms": 2084,
      "ĠAss": 2085,
      "Ġgenerally": 2086,
      "uk": 2087,
      "Ġcase": 2088,
      "Ġblack": 2089,
      "Ġanimals": 2090,
      "sor": 2091,
      "uck": 2092,
      "ze": 2093,
      "atin": 2094,
      "Ġwin": 2095,
      "edi": 2096,
      "Ġmoney": 2097,
      "omic": 2098,
      "osph": 2099,
      "ĠFrom": 2100,
      "ĠJan": 2101,
      "Ġcold": 2102,
      "Ġterms": 2103,
      "Ġsimple": 2104,
      "Ġrepresent": 2105,
      "Ġobject": 2106,
      "Ġurine": 2107,
      "ictionary": 2108,
      "gr": 2109,
      "stand": 2110,
      "ellow": 2111,
      "Ġdefined": 2112,
      "Ġsomeone": 2113,
      "Ġsimilar": 2114,
      "Ġmembers": 2115,
      "Ġincrease": 2116,
      "Ġreceive": 2117,
      "Ġnatural": 2118,
      "time": 2119,
      "iding": 2120,
      "idence": 2121,
      "ĠDes": 2122,
      "Ġrisk": 2123,
      "ected": 2124,
      "Ġchol": 2125,
      "ards": 2126,
      "vious": 2127,
      "Ġvarious": 2128,
      "Ġdamage": 2129,
      "Ġtaken": 2130,
      "erve": 2131,
      "Ġsay": 2132,
      "Ġbeh": 2133,
      "ĠBy": 2134,
      "irm": 2135,
      "ember": 2136,
      "ope": 2137,
      "Ġalcohol": 2138,
      "Ġkind": 2139,
      "ival": 2140,
      "ĠJu": 2141,
      "Ġhowever": 2142,
      "Ġcontract": 2143,
      "Ġrole": 2144,
      "Ġ2017": 2145,
      "Ġrefers": 2146,
      "ĠTexas": 2147,
      "70": 2148,
      "IN": 2149,
      "ised": 2150,
      "Ġparen": 2151,
      "ĠPark": 2152,
      "Ġstep": 2153,
      "aste": 2154,
      "Ġ198": 2155,
      "Ġservices": 2156,
      "____": 2157,
      "sych": 2158,
      "13": 2159,
      "cks": 2160,
      "ply": 2161,
      "Ġinj": 2162,
      "Ġdem": 2163,
      "Ġhy": 2164,
      "urity": 2165,
      "Ġdoctor": 2166,
      "ĠOther": 2167,
      "Ġproduction": 2168,
      "Ġcreated": 2169,
      "ĠQu": 2170,
      "Ġreaction": 2171,
      "fact": 2172,
      "att": 2173,
      "ising": 2174,
      "Ġmax": 2175,
      "Ġtoget": 2176,
      "oma": 2177,
      "ĠAfric": 2178,
      "ĠBr": 2179,
      "Ġchicken": 2180,
      "Ġnext": 2181,
      "Ġadult": 2182,
      "Ġallow": 2183,
      "Ġ--": 2184,
      "ĠHealth": 2185,
      "Ġresults": 2186,
      "Ġeduc": 2187,
      "ique": 2188,
      "Ġproblems": 2189,
      "Ġdrug": 2190,
      "Ġtogether": 2191,
      "24": 2192,
      "aut": 2193,
      "yle": 2194,
      "onic": 2195,
      "Ġbone": 2196,
      "Ġlik": 2197,
      "Ġ13": 2198,
      "ĠDay": 2199,
      "Ġalong": 2200,
      "Ġjoint": 2201,
      "Ġflow": 2202,
      "Ġstudy": 2203,
      "Ġstudents": 2204,
      "Ġsaid": 2205,
      "Ġparticular": 2206,
      "Ġhistory": 2207,
      "aur": 2208,
      "Ġx": 2209,
      "ision": 2210,
      "ician": 2211,
      "ĠSw": 2212,
      "Ġonline": 2213,
      "ĠHar": 2214,
      "Ġadj": 2215,
      "Ġ2014": 2216,
      "Ġtemperatures": 2217,
      "ronic": 2218,
      "che": 2219,
      "oks": 2220,
      "reg": 2221,
      "itary": 2222,
      "eds": 2223,
      "Ġmg": 2224,
      "ands": 2225,
      "ections": 2226,
      "ductor": 2227,
      "Ġrain": 2228,
      "Ġindic": 2229,
      "Ġregion": 2230,
      "Ġpaid": 2231,
      "viron": 2232,
      "org": 2233,
      "Ġfru": 2234,
      "ĠSu": 2235,
      "ules": 2236,
      "ĠWind": 2237,
      "artment": 2238,
      "reek": 2239,
      "Ġpregn": 2240,
      "Ġsales": 2241,
      "Ġinsurance": 2242,
      "ief": 2243,
      "zym": 2244,
      "Ġcredit": 2245,
      "Ġpen": 2246,
      "Ġdaily": 2247,
      "Ġtool": 2248,
      "ula": 2249,
      "odes": 2250,
      "ĠBest": 2251,
      "ems": 2252,
      "ĠUs": 2253,
      "Ġworks": 2254,
      "ails": 2255,
      "Ġsoft": 2256,
      "Ġminimum": 2257,
      "Ġlittle": 2258,
      "Ġeye": 2259,
      ".,": 2260,
      "uary": 2261,
      "Ġident": 2262,
      "Ġbit": 2263,
      "Ġmot": 2264,
      "Ġhydro": 2265,
      "Ġlength": 2266,
      "ĠWash": 2267,
      "ument": 2268,
      "acy": 2269,
      "Ġchanges": 2270,
      "ĠAng": 2271,
      "Ġart": 2272,
      "ydr": 2273,
      "Ġhalf": 2274,
      "ding": 2275,
      "ole": 2276,
      "orpor": 2277,
      "roph": 2278,
      "Ġliving": 2279,
      "ĠAverage": 2280,
      "Ġthink": 2281,
      "Ġ21": 2282,
      "Ġago": 2283,
      "Ġauthor": 2284,
      "ony": 2285,
      "ises": 2286,
      "Ġlay": 2287,
      "ili": 2288,
      "Ġnamed": 2289,
      "cember": 2290,
      "Ġstar": 2291,
      "Ġvac": 2292,
      "Ġrout": 2293,
      "Ġothers": 2294,
      "ĠKing": 2295,
      "Ġwhole": 2296,
      "Ġbetter": 2297,
      "Ġseries": 2298,
      "iam": 2299,
      "ery": 2300,
      "acks": 2301,
      "Ġhaving": 2302,
      "ples": 2303,
      "rench": 2304,
      "iana": 2305,
      "Ġimpro": 2306,
      "Ġfee": 2307,
      "Ġacross": 2308,
      "Ġextra": 2309,
      "ĠMedic": 2310,
      "Ġdisorder": 2311,
      "Ġsurface": 2312,
      "ler": 2313,
      "Â»": 2314,
      "Ġopt": 2315,
      "Ġcult": 2316,
      "itch": 2317,
      "omach": 2318,
      "Ġthird": 2319,
      "Ġ22": 2320,
      "rome": 2321,
      "Ġalmost": 2322,
      "pecially": 2323,
      "Ġinterest": 2324,
      "Ġindustry": 2325,
      "oe": 2326,
      "Ġcut": 2327,
      "Ġwid": 2328,
      "Ġdoll": 2329,
      "Ġline": 2330,
      "Ġnational": 2331,
      "ĠSun": 2332,
      "rab": 2333,
      "ĠGl": 2334,
      "ights": 2335,
      "Ġespecially": 2336,
      "Ġcustomer": 2337,
      "esterol": 2338,
      "aff": 2339,
      "onym": 2340,
      "Ġnerv": 2341,
      "ĠSym": 2342,
      "ĠBrit": 2343,
      "Ġ2000": 2344,
      "ogen": 2345,
      "Ġfeel": 2346,
      "Ġinside": 2347,
      "Ġhelps": 2348,
      "Ġdepends": 2349,
      "ĠWashington": 2350,
      "Ġsent": 2351,
      "Ġpack": 2352,
      "Ġdate": 2353,
      "ilities": 2354,
      "ĠBo": 2355,
      "Ġprom": 2356,
      "ĠRiver": 2357,
      "ĠLear": 2358,
      "Ġkm": 2359,
      "duct": 2360,
      "iple": 2361,
      "Ġcomputer": 2362,
      "Ġquick": 2363,
      "Ġregular": 2364,
      "ĠDecember": 2365,
      "Ġhumans": 2366,
      "ĠTrans": 2367,
      "Ġfluid": 2368,
      "Ġstructure": 2369,
      "Ġoxy": 2370,
      "like": 2371,
      "ĠX": 2372,
      "Ġess": 2373,
      "Ġtri": 2374,
      "Ġwall": 2375,
      "edia": 2376,
      "ention": 2377,
      "Ġge": 2378,
      "Ġstomach": 2379,
      "Ġconst": 2380,
      "agement": 2381,
      "Ġshare": 2382,
      "ideo": 2383,
      "reath": 2384,
      "obile": 2385,
      "lands": 2386,
      "Ġdiabetes": 2387,
      "Ġdiseases": 2388,
      "ĠMarch": 2389,
      "Ġstrong": 2390,
      "Ġmarket": 2391,
      "Ġkidney": 2392,
      "ĠAugust": 2393,
      "RE": 2394,
      "by": 2395,
      "Ġ+": 2396,
      "Ġfive": 2397,
      "ĠAfter": 2398,
      "Ġnorth": 2399,
      "ĠShe": 2400,
      "ama": 2401,
      "vert": 2402,
      "aces": 2403,
      "ips": 2404,
      "Ġrock": 2405,
      "Ġimp": 2406,
      "ĠChar": 2407,
      "Ġsimply": 2408,
      "Ġcenter": 2409,
      "attery": 2410,
      "Ġmovement": 2411,
      "Ġsource": 2412,
      "imbus": 2413,
      "lin": 2414,
      "son": 2415,
      "isc": 2416,
      "Ġpage": 2417,
      "Ġble": 2418,
      "Ġinvest": 2419,
      "Ġdom": 2420,
      "Ġdra": 2421,
      "ĠMany": 2422,
      "odium": 2423,
      "ĠWill": 2424,
      "ĠEach": 2425,
      "ĠInc": 2426,
      "eful": 2427,
      "Ġteeth": 2428,
      "Ġneeds": 2429,
      "Ġbuy": 2430,
      "Ġmilk": 2431,
      "lamm": 2432,
      "vironment": 2433,
      "be": 2434,
      "bur": 2435,
      "na": 2436,
      "ores": 2437,
      "erc": 2438,
      "iting": 2439,
      "Ġpric": 2440,
      "ĠSystem": 2441,
      "ĠMon": 2442,
      "Ġareas": 2443,
      "ects": 2444,
      "anta": 2445,
      "Ġcollect": 2446,
      "Ġgoing": 2447,
      "Ġearth": 2448,
      "Ġcharge": 2449,
      "Ġmodel": 2450,
      "Ġbreak": 2451,
      "Ġproblem": 2452,
      "SA": 2453,
      "Ġtry": 2454,
      "Ġbal": 2455,
      "Ġbook": 2456,
      "Ġbank": 2457,
      "Ġlot": 2458,
      "oses": 2459,
      "Ġview": 2460,
      "Ġcontact": 2461,
      "Ġoffice": 2462,
      "Ġdevelopment": 2463,
      "Ġapplication": 2464,
      "88": 2465,
      "yro": 2466,
      "Ġnames": 2467,
      "ste": 2468,
      "ĠPar": 2469,
      "ÂĢÂ¢": 2470,
      "ĠGo": 2471,
      "Ġtraining": 2472,
      "Ġelectric": 2473,
      "Ġfilm": 2474,
      "----": 2475,
      "ĠService": 2476,
      "Ġpossible": 2477,
      "Ġlikely": 2478,
      "rig": 2479,
      "Ġsocial": 2480,
      "Ġposition": 2481,
      "lease": 2482,
      "Ġlate": 2483,
      "Ġliver": 2484,
      "ĠPres": 2485,
      "ĠHere": 2486,
      "Ġprop": 2487,
      "aches": 2488,
      "Ġclaim": 2489,
      "Ġapply": 2490,
      "Ġenzym": 2491,
      "ĠUniversity": 2492,
      "ĠSec": 2493,
      "Ġcholesterol": 2494,
      "Ġoxygen": 2495,
      "CA": 2496,
      "gage": 2497,
      "Ġlic": 2498,
      "Ġlater": 2499,
      "Ġecon": 2500,
      "ĠIm": 2501,
      "Ġsepar": 2502,
      "ensive": 2503,
      "Ġworth": 2504,
      "Ġ196": 2505,
      "Ġtele": 2506,
      "Ġtravel": 2507,
      "Ġthroughout": 2508,
      "cules": 2509,
      "Ġphysical": 2510,
      "Ġwritten": 2511,
      "ĠGerman": 2512,
      "Ġfrequ": 2513,
      "Ġet": 2514,
      "Ġaway": 2515,
      "Ġmatter": 2516,
      "inger": 2517,
      "chan": 2518,
      "izes": 2519,
      "Ġappl": 2520,
      "Ġarm": 2521,
      "Ġsoil": 2522,
      "Ġgrowth": 2523,
      "Ġcomplete": 2524,
      "gery": 2525,
      "ĠCarol": 2526,
      "-$": 2527,
      "ey": 2528,
      "lu": 2529,
      "ners": 2530,
      "Â®": 2531,
      "err": 2532,
      "attle": 2533,
      "Ġwa": 2534,
      "alt": 2535,
      "itor": 2536,
      "Ġburn": 2537,
      "Ġbirth": 2538,
      "Ġstay": 2539,
      "ĠBel": 2540,
      "ado": 2541,
      "Ġdeep": 2542,
      "Ġalways": 2543,
      "oster": 2544,
      "ĠLoc": 2545,
      "Ġexc": 2546,
      "ĠJune": 2547,
      "rict": 2548,
      "Ġsalt": 2549,
      "bsite": 2550,
      "Ġfactors": 2551,
      "key": 2552,
      "22": 2553,
      "ON": 2554,
      "rel": 2555,
      "Ġsure": 2556,
      "Ġfri": 2557,
      "Ġput": 2558,
      "ouble": 2559,
      "Ġmouth": 2560,
      "Ġmicro": 2561,
      "leep": 2562,
      "Ġnoun": 2563,
      "Ġexcess": 2564,
      "ĠThat": 2565,
      "Ġartic": 2566,
      "Ġrob": 2567,
      "Ġaccess": 2568,
      "Ġvariety": 2569,
      "Ġrespons": 2570,
      "Ġcycle": 2571,
      "Ġprimary": 2572,
      "45": 2573,
      "ww": 2574,
      "Ġtaking": 2575,
      "Ġap": 2576,
      "Ġtherapy": 2577,
      "Ġcoun": 2578,
      "Ġfast": 2579,
      "itation": 2580,
      "Ġreally": 2581,
      "Ġevol": 2582,
      "ĠMus": 2583,
      "ĠBar": 2584,
      "aced": 2585,
      "ells": 2586,
      "auses": 2587,
      "Ġability": 2588,
      "ibr": 2589,
      "Ġroom": 2590,
      "Ġprec": 2591,
      "Ġsalaries": 2592,
      "ĠReg": 2593,
      "stitution": 2594,
      "Ġfinanc": 2595,
      "Ġreplace": 2596,
      "ĠWindows": 2597,
      "SE": 2598,
      "ging": 2599,
      "sc": 2600,
      "Ġtree": 2601,
      "athe": 2602,
      "Ġfresh": 2603,
      "Ġgirl": 2604,
      "ided": 2605,
      "otic": 2606,
      "ĠMin": 2607,
      "osing": 2608,
      "ably": 2609,
      "Ġuseful": 2610,
      "Ġnecess": 2611,
      "Ġweb": 2612,
      "Ġteam": 2613,
      "Ġquestion": 2614,
      "Ġsymbol": 2615,
      "ĠComm": 2616,
      "ylv": 2617,
      "Ġautom": 2618,
      "Ġsevere": 2619,
      "Ġboil": 2620,
      "Ġannual": 2621,
      "Ġreferred": 2622,
      "Ġeggs": 2623,
      "ĠArea": 2624,
      "ĠJanuary": 2625,
      "ĠJuly": 2626,
      "'ll": 2627,
      "26": 2628,
      "38": 2629,
      "ges": 2630,
      "ipp": 2631,
      "over": 2632,
      "era": 2633,
      "Ġopp": 2634,
      "Ġbreath": 2635,
      "Ġdoc": 2636,
      "ĠAust": 2637,
      "ida": 2638,
      "ĠFore": 2639,
      "ured": 2640,
      "Ġkil": 2641,
      "aged": 2642,
      "Ġaddition": 2643,
      "ĠVir": 2644,
      "Ġquality": 2645,
      "Ġemployees": 2646,
      "BA": 2647,
      "In": 2648,
      "rete": 2649,
      "Ġsat": 2650,
      "Ġsong": 2651,
      "Ġswe": 2652,
      "Ġmail": 2653,
      "Ġgreen": 2654,
      "ĠyouÃ¢": 2655,
      "ounced": 2656,
      "Ġdeb": 2657,
      "illed": 2658,
      "ĠNumber": 2659,
      "ache": 2660,
      "aps": 2661,
      "Ġallows": 2662,
      "avor": 2663,
      "Ġproduced": 2664,
      "Ġestim": 2665,
      "version": 2666,
      "Ġpurch": 2667,
      "Ġpatients": 2668,
      "100": 2669,
      "cing": 2670,
      "oor": 2671,
      "Ġsout": 2672,
      "Ġsens": 2673,
      "Ġfar": 2674,
      "Ġfem": 2675,
      "Ġhim": 2676,
      "ĠTw": 2677,
      "Ġnight": 2678,
      "state": 2679,
      "Ġyellow": 2680,
      "utions": 2681,
      "Ġstop": 2682,
      "Ġrough": 2683,
      "ĠGu": 2684,
      "Ġenough": 2685,
      "Ġmov": 2686,
      "Ġactually": 2687,
      "Ġactivity": 2688,
      "90": 2689,
      "Ġir": 2690,
      "Ġcup": 2691,
      "Ġing": 2692,
      "Ġdia": 2693,
      "room": 2694,
      "ĠSer": 2695,
      "ĠSan": 2696,
      "ĠMy": 2697,
      "ĠMore": 2698,
      "ĠWest": 2699,
      "Ġproced": 2700,
      "ĠLong": 2701,
      "Ġwhether": 2702,
      "Ġweigh": 2703,
      "orms": 2704,
      "Ġju": 2705,
      "avy": 2706,
      "Ġmedian": 2707,
      "Ġ80": 2708,
      "Ġsystems": 2709,
      "ĠCanada": 2710,
      "ĠAngel": 2711,
      "ches": 2712,
      "drome": 2713,
      "eg": 2714,
      "ele": 2715,
      "his": 2716,
      "hold": 2717,
      "light": 2718,
      "rest": 2719,
      "aring": 2720,
      "uses": 2721,
      "ĠHist": 2722,
      "ĠHome": 2723,
      "ĠFrench": 2724,
      "Ġheal": 2725,
      "ĠOver": 2726,
      "ĠOff": 2727,
      "Ġsex": 2728,
      "Ġselect": 2729,
      "Ġ35": 2730,
      "Ġenter": 2731,
      "Ġlegal": 2732,
      "Ġnetwork": 2733,
      "Ġlabor": 2734,
      "Ġsummer": 2735,
      "Ġmaximum": 2736,
      "gress": 2737,
      "ufact": 2738,
      "west": 2739,
      "wood": 2740,
      "ream": 2741,
      "Ġsite": 2742,
      "itan": 2743,
      "Ġbra": 2744,
      "Ġmiddle": 2745,
      "ĠWik": 2746,
      "Ġask": 2747,
      "ĠFood": 2748,
      "ĠNimbus": 2749,
      "Ġdogs": 2750,
      "ĠInter": 2751,
      "Ġprevious": 2752,
      "ĠRec": 2753,
      "Ġpresident": 2754,
      "Ġtests": 2755,
      "Ġrequirements": 2756,
      "Ġequal": 2757,
      "Ġmolecules": 2758,
      "DA": 2759,
      "hic": 2760,
      "sylv": 2761,
      "thes": 2762,
      "Ġ#": 2763,
      "anch": 2764,
      "Ġfig": 2765,
      "Ġpie": 2766,
      "Ġmount": 2767,
      "Ġtoday": 2768,
      "ĠCur": 2769,
      "otics": 2770,
      "Ġyoun": 2771,
      "ĠPenn": 2772,
      "ĠRed": 2773,
      "ĠRem": 2774,
      "ĠLab": 2775,
      "Ġenvironment": 2776,
      "Ġqual": 2777,
      "Ġconsum": 2778,
      "Ġfounded": 2779,
      "Ġrequires": 2780,
      "Ġestab": 2781,
      "Ġnutri": 2782,
      "Ġdevice": 2783,
      "Ġcannot": 2784,
      "Ġbleeding": 2785,
      "sylvania": 2786,
      "33": 2787,
      "99": 2788,
      "Ġfiber": 2789,
      "Ġdest": 2790,
      "ĠTop": 2791,
      "usion": 2792,
      "Ġgame": 2793,
      "iday": 2794,
      "Ġ28": 2795,
      "ĠNet": 2796,
      "ĠLatin": 2797,
      "ĠGreek": 2798,
      "Ġhem": 2799,
      "Ġseat": 2800,
      "ude": 2801,
      "ĠWhile": 2802,
      "Ġintest": 2803,
      "ibility": 2804,
      "Ġroast": 2805,
      "ava": 2806,
      "Ġtext": 2807,
      "ĠRead": 2808,
      "Ġworking": 2809,
      "Ġdeveloped": 2810,
      "Ġeducation": 2811,
      "ĠPennsylvania": 2812,
      "%.": 2813,
      "36": 2814,
      "RS": 2815,
      "fort": 2816,
      "Ġcub": 2817,
      "Ġcases": 2818,
      "arr": 2819,
      "arily": 2820,
      "ung": 2821,
      "ĠFin": 2822,
      "ĠFam": 2823,
      "Ġconc": 2824,
      "ĠRel": 2825,
      "Ġdeath": 2826,
      "istic": 2827,
      "Ġchlor": 2828,
      "ĠStep": 2829,
      "ccess": 2830,
      "Ġ197": 2831,
      "Ġpron": 2832,
      "Ġassist": 2833,
      "Ġcalcul": 2834,
      "Ġmodern": 2835,
      "Ġelectr": 2836,
      "Ġveget": 2837,
      "Ġvisit": 2838,
      "Ġclean": 2839,
      "bor": 2840,
      "put": 2841,
      "rm": 2842,
      "uel": 2843,
      "Â²": 2844,
      "Ġill": 2845,
      "anks": 2846,
      "Ġwear": 2847,
      "Ġmother": 2848,
      "used": 2849,
      "Ġlog": 2850,
      "ĠMet": 2851,
      "ĠPort": 2852,
      "ema": 2853,
      "Ġseen": 2854,
      "ivil": 2855,
      "epend": 2856,
      "Ġneeded": 2857,
      "cover": 2858,
      "Ġstarted": 2859,
      "osphate": 2860,
      "RI": 2861,
      "ture": 2862,
      "Ġtur": 2863,
      "Ġtub": 2864,
      "isp": 2865,
      "Ġder": 2866,
      "Ġtooth": 2867,
      "Ġhor": 2868,
      "ĠTax": 2869,
      "ston": 2870,
      "ample": 2871,
      "imul": 2872,
      "Ġsuper": 2873,
      "Ġwebsite": 2874,
      "duate": 2875,
      "ĠWhite": 2876,
      "olden": 2877,
      "ĠConductor": 2878,
      "Ġsubject": 2879,
      "Ġremo": 2880,
      "Ġsolar": 2881,
      "Ġforecast": 2882,
      "Ġetc": 2883,
      "21": 2884,
      "des": 2885,
      "met": 2886,
      "ober": 2887,
      "rist": 2888,
      "Ġtall": 2889,
      "Ġsleep": 2890,
      "Ġfirm": 2891,
      "Ġmess": 2892,
      "Ġharm": 2893,
      "ĠDoes": 2894,
      "hers": 2895,
      "Ġproject": 2896,
      "Ġunits": 2897,
      "ĠStat": 2898,
      "ogn": 2899,
      "Ġcompon": 2900,
      "Ġupon": 2901,
      "Ġinfections": 2902,
      "Ġsale": 2903,
      "Ġglass": 2904,
      "ĠLeg": 2905,
      "Ġmedications": 2906,
      "upper": 2907,
      "Ġreleased": 2908,
      "ospital": 2909,
      "board": 2910,
      "46": 2911,
      "EN": 2912,
      "MT": 2913,
      "for": 2914,
      "oose": 2915,
      "Ġtick": 2916,
      "icy": 2917,
      "ctober": 2918,
      "ĠPart": 2919,
      "ĠDi": 2920,
      "ĠFirst": 2921,
      "Ġdead": 2922,
      "Ġrather": 2923,
      "pper": 2924,
      "ĠIns": 2925,
      "Ġoffers": 2926,
      "encies": 2927,
      "Ġmonthly": 2928,
      "Ġmember": 2929,
      "Ġcomplex": 2930,
      "Ġpassport": 2931,
      "Ġcourse": 2932,
      "Ġreduce": 2933,
      "Ġinjury": 2934,
      "ault": 2935,
      "ius": 2936,
      "Ġupper": 2937,
      "Ġtend": 2938,
      "inks": 2939,
      "Ġwide": 2940,
      "oman": 2941,
      "ĠAir": 2942,
      "Ġreason": 2943,
      "Ġonce": 2944,
      "ĠRock": 2945,
      "Ġresearch": 2946,
      "Ġtraditional": 2947,
      "Ġunderstand": 2948,
      "Ġcountries": 2949,
      "ohydr": 2950,
      "Ġbuilding": 2951,
      "ĠPeople": 2952,
      "Ġsitu": 2953,
      "Ġpurpose": 2954,
      "hib": 2955,
      "mark": 2956,
      "Ġoun": 2957,
      "anies": 2958,
      "Ġfield": 2959,
      "Ġpsych": 2960,
      "Ġbattery": 2961,
      "icult": 2962,
      "Ġdose": 2963,
      "Ġnort": 2964,
      "ĠMich": 2965,
      "ĠHigh": 2966,
      "Ġplate": 2967,
      "ĠIts": 2968,
      "ference": 2969,
      "Ġprem": 2970,
      "Ġdefine": 2971,
      "Ġgoes": 2972,
      "Ġsubs": 2973,
      "Ġkey": 2974,
      "Ġslow": 2975,
      "Ġoriginal": 2976,
      "Ġcomplet": 2977,
      "ĠMedical": 2978,
      "Ġanimal": 2979,
      "Ġcontinu": 2980,
      "ĠCarolina": 2981,
      "32": 2982,
      "aul": 2983,
      "bl": 2984,
      "bit": 2985,
      "Ġaction": 2986,
      "rem": 2987,
      "ato": 2988,
      "estern": 2989,
      "Ġwood": 2990,
      "Ġbow": 2991,
      "Ġmill": 2992,
      "asing": 2993,
      "ĠSub": 2994,
      "Ġeast": 2995,
      "ĠIRA": 2996,
      "Ġaltern": 2997,
      "Ġadditional": 2998,
      "Ġ48": 2999,
      "Ġcloud": 3000,
      "Ġdoesn": 3001,
      "Ġinflamm": 3002,
      "Ġcommunity": 3003,
      "Ġmedium": 3004,
      "Ġgenetic": 3005,
      "Ġrare": 3006,
      "Ġrelations": 3007,
      "brevi": 3008,
      "Ġcirc": 3009,
      "ĠFeb": 3010,
      "PI": 3011,
      "sel": 3012,
      "onse": 3013,
      "reet": 3014,
      "Ġfederal": 3015,
      "Ġpounds": 3016,
      "Ġbad": 3017,
      "oul": 3018,
      "Ġevent": 3019,
      "Ġgar": 3020,
      "ĠBay": 3021,
      "emia": 3022,
      "opy": 3023,
      "Ġvideo": 3024,
      "ension": 3025,
      "ĠVal": 3026,
      "Ġcollege": 3027,
      "Ġcarry": 3028,
      "Ġmanufact": 3029,
      "Ġliter": 3030,
      "Ġdrugs": 3031,
      "book": 3032,
      "rew": 3033,
      "Ġcreat": 3034,
      "alty": 3035,
      "lets": 3036,
      "asons": 3037,
      "ĠSum": 3038,
      "ulin": 3039,
      "adem": 3040,
      "ĠEast": 3041,
      "Ġleave": 3042,
      "Ġleaves": 3043,
      "ormally": 3044,
      "Ġ2013": 3045,
      "Ġfees": 3046,
      "arged": 3047,
      "Ġrequest": 3048,
      "Ġbuilt": 3049,
      "Ġtaxes": 3050,
      "Ġobtain": 3051,
      "ĠIsland": 3052,
      "Ġlisted": 3053,
      "98": 3054,
      "AT": 3055,
      "ET": 3056,
      "draw": 3057,
      "zer": 3058,
      "ĠĠ": 3059,
      "Ġtru": 3060,
      "Ġmag": 3061,
      "Ġded": 3062,
      "Ġdone": 3063,
      "ulf": 3064,
      "ĠBen": 3065,
      "ĠFederal": 3066,
      "Ġveter": 3067,
      "Ġranges": 3068,
      "Ġmechan": 3069,
      "aph": 3070,
      "Ġphr": 3071,
      "Ġpharm": 3072,
      "Ġgets": 3073,
      "ritis": 3074,
      "Ġactive": 3075,
      "ĠUSA": 3076,
      "Ġdistance": 3077,
      "Ġbenefit": 3078,
      "Ġwoman": 3079,
      "orgia": 3080,
      "Ġpregnancy": 3081,
      "Ġimprove": 3082,
      "Ġnervous": 3083,
      "ĠSymptoms": 3084,
      "Ġingred": 3085,
      "ĠAngeles": 3086,
      "IT": 3087,
      "It": 3088,
      "PA": 3089,
      "cial": 3090,
      "cient": 3091,
      "fl": 3092,
      "ken": 3093,
      "alm": 3094,
      "Ġfail": 3095,
      "Ġface": 3096,
      "Ġpanc": 3097,
      "Ġinvent": 3098,
      "use": 3099,
      "ĠSpr": 3100,
      "olar": 3101,
      "Ġ23": 3102,
      "ĠForm": 3103,
      "ÂĢÂĺ": 3104,
      "que": 3105,
      "ĠUse": 3106,
      "orts": 3107,
      "ordin": 3108,
      "Ġcompanies": 3109,
      "Ġcontroll": 3110,
      "apan": 3111,
      "Ġoutside": 3112,
      "Ġacids": 3113,
      "Ġamino": 3114,
      "Ġactor": 3115,
      "Ġdistrib": 3116,
      "Ġsignific": 3117,
      "Ġgluc": 3118,
      "Ġproperty": 3119,
      "Ġelements": 3120,
      "ĠCenter": 3121,
      "Ġdifficult": 3122,
      "cium": 3123,
      "gins": 3124,
      "ties": 3125,
      "Ġcast": 3126,
      "Ġwire": 3127,
      "Ġfoc": 3128,
      "Ġpan": 3129,
      "Ġpound": 3130,
      "ication": 3131,
      "Ġthing": 3132,
      "cean": 3133,
      "ĠDon": 3134,
      "ĠRet": 3135,
      "opl": 3136,
      "ops": 3137,
      "abol": 3138,
      "ĠLos": 3139,
      "ĠLaw": 3140,
      "ĠGet": 3141,
      "ĠGra": 3142,
      "see": 3143,
      "ĠInt": 3144,
      "ptember": 3145,
      "Ġabsor": 3146,
      "Ġamong": 3147,
      "Ġanywhere": 3148,
      "ĠAlthough": 3149,
      "Ġpolit": 3150,
      "Ġvehic": 3151,
      "Ġsyndrome": 3152,
      "Ġdrive": 3153,
      "Ġdigest": 3154,
      "ĠDepartment": 3155,
      "Ġprices": 3156,
      "Ġnecessary": 3157,
      "thesis": 3158,
      "27": 3159,
      "ares": 3160,
      "cule": 3161,
      "den": 3162,
      "gans": 3163,
      "li": 3164,
      "zz": 3165,
      "Ġoven": 3166,
      "ena": 3167,
      "Ġpick": 3168,
      "Ġbag": 3169,
      "Ġmid": 3170,
      "asp": 3171,
      "Ġnation": 3172,
      "ĠCare": 3173,
      "ĠDist": 3174,
      "ums": 3175,
      "Ġrates": 3176,
      "quar": 3177,
      "ĠOur": 3178,
      "Ġshows": 3179,
      "Ġdispl": 3180,
      "Ġspread": 3181,
      "Ġfeed": 3182,
      "Ġexpenses": 3183,
      "Ġsurv": 3184,
      "Ġadded": 3185,
      "Ġentire": 3186,
      "Ġpercentage": 3187,
      "Ġcreate": 3188,
      "Ġolder": 3189,
      "ĠSalary": 3190,
      "Ġsources": 3191,
      "fficient": 3192,
      "Ġfruit": 3193,
      "Ġroughly": 3194,
      "800": 3195,
      "my": 3196,
      "ny": 3197,
      "rink": 3198,
      "Ġ*": 3199,
      "eration": 3200,
      "Ġsays": 3201,
      "Ġcorn": 3202,
      "ene": 3203,
      "Ġways": 3204,
      "ales": 3205,
      "Ġdivid": 3206,
      "ilk": 3207,
      "ĠAut": 3208,
      "ĠCO": 3209,
      "Ġreview": 3210,
      "Ġgall": 3211,
      "ĠDire": 3212,
      "ĠRE": 3213,
      "Ġvent": 3214,
      "Ġrich": 3215,
      "ĠLake": 3216,
      "ĠGreat": 3217,
      "Ġheld": 3218,
      "ĠOctober": 3219,
      "Ġadop": 3220,
      "ruary": 3221,
      "Ġcool": 3222,
      "Ġ65": 3223,
      "Ġgrass": 3224,
      "Ġ70": 3225,
      "ovember": 3226,
      "Ġmedication": 3227,
      "Ġruns": 3228,
      "Ġproteins": 3229,
      "ĠInternational": 3230,
      "yroid": 3231,
      "OT": 3232,
      "bon": 3233,
      "ype": 3234,
      "Ġaff": 3235,
      "Ġbrown": 3236,
      "Ġmort": 3237,
      "ils": 3238,
      "ĠCle": 3239,
      "ĠSpec": 3240,
      "Ġstock": 3241,
      "Ġ26": 3242,
      "ĠFlor": 3243,
      "Ġvotes": 3244,
      "Ġexist": 3245,
      "Ġexact": 3246,
      "ivity": 3247,
      "Ġ36": 3248,
      "aging": 3249,
      "Ġflat": 3250,
      "hens": 3251,
      "Ġprinc": 3252,
      "Ġconsist": 3253,
      "arget": 3254,
      "Ġsurgery": 3255,
      "ĠAdd": 3256,
      "Ġrespir": 3257,
      "Ġjobs": 3258,
      "azon": 3259,
      "ready": 3260,
      "Ġlooking": 3261,
      "stitute": 3262,
      "ĠCentral": 3263,
      "ĠAbout": 3264,
      "struction": 3265,
      "Ġcarbohydr": 3266,
      "minist": 3267,
      "Ġprofessional": 3268,
      "//": 3269,
      "28": 3270,
      "://": 3271,
      "DL": 3272,
      "cel": 3273,
      "ead": 3274,
      "iac": 3275,
      "ĠÃ": 3276,
      "atric": 3277,
      "Ġpers": 3278,
      "lection": 3279,
      "Ġlink": 3280,
      "ĠMicro": 3281,
      "ĠPac": 3282,
      "Ġstimul": 3283,
      "ĠBure": 3284,
      "ocon": 3285,
      "ocks": 3286,
      "ĠGreen": 3287,
      "Ġexerc": 3288,
      "Ġseven": 3289,
      "Ġsuccess": 3290,
      "ource": 3291,
      "ords": 3292,
      "Ġblue": 3293,
      "aving": 3294,
      "Ġimpl": 3295,
      "Ġformed": 3296,
      "ĠClick": 3297,
      "Ġtransl": 3298,
      "ĠBec": 3299,
      "Ġfactor": 3300,
      "Ġpatient": 3301,
      "Ġcurrently": 3302,
      "Ġbiological": 3303,
      "Ġhormone": 3304,
      "Ġorganisms": 3305,
      "Ġessential": 3306,
      "'ve": 3307,
      "57": 3308,
      "cine": 3309,
      "fall": 3310,
      "gra": 3311,
      "oo": 3312,
      "tr": 3313,
      "ye": 3314,
      "Ġoption": 3315,
      "Ġsearch": 3316,
      "Ġwarm": 3317,
      "Ġfire": 3318,
      "Ġpow": 3319,
      "Ġhyp": 3320,
      "ĠAC": 3321,
      "ĠAD": 3322,
      "ĠAT": 3323,
      "ĠSk": 3324,
      "Ġforce": 3325,
      "urse": 3326,
      "ully": 3327,
      "Ġwithdraw": 3328,
      "Ġblock": 3329,
      "Ġspace": 3330,
      "Ġincluded": 3331,
      "Ġtract": 3332,
      "Ġitself": 3333,
      "Ġconsists": 3334,
      "Ġrecent": 3335,
      "ĠSeptember": 3336,
      "Ġmolecule": 3337,
      "Ġsteel": 3338,
      "ĠGeorgia": 3339,
      "Ġofficial": 3340,
      "Ġwidely": 3341,
      "ĠPresident": 3342,
      "Ġmovie": 3343,
      "gar": 3344,
      "sol": 3345,
      "uct": 3346,
      "Ġsound": 3347,
      "Ġself": 3348,
      "Ġdental": 3349,
      "rogen": 3350,
      "oming": 3351,
      "ĠCustom": 3352,
      "amins": 3353,
      "raction": 3354,
      "ĠPost": 3355,
      "Ġstra": 3356,
      "Ġalready": 3357,
      "Ġlegs": 3358,
      "ightly": 3359,
      "actions": 3360,
      "izz": 3361,
      "ront": 3362,
      "Ġresponse": 3363,
      "ĠBlack": 3364,
      "Ġdesigned": 3365,
      "Ġdisorders": 3366,
      "Ġsubstance": 3367,
      "Ġmixture": 3368,
      "Ġpractice": 3369,
      "Ġrelationship": 3370,
      "400": 3371,
      "AN": 3372,
      "based": 3373,
      "ged": 3374,
      "mission": 3375,
      "rition": 3376,
      "sp": 3377,
      "tes": 3378,
      "Ġtask": 3379,
      "Ġsense": 3380,
      "Ġfur": 3381,
      "Ġpet": 3382,
      "Ġbor": 3383,
      "ĠSim": 3384,
      "ĠBer": 3385,
      "ĠDet": 3386,
      "ĠHer": 3387,
      "Ġdeal": 3388,
      "Ġrat": 3389,
      "ago": 3390,
      "ĠJapan": 3391,
      "Ġground": 3392,
      "rams": 3393,
      "ĠAsia": 3394,
      "ĠAlso": 3395,
      "Ġantib": 3396,
      "Ġavoid": 3397,
      "Ġprograms": 3398,
      "Ġrelease": 3399,
      "Ġvolume": 3400,
      "load": 3401,
      "ĠLearn": 3402,
      "riger": 3403,
      "ĠAustral": 3404,
      "Ġnutrients": 3405,
      "Ġinflammation": 3406,
      "ĠFebruary": 3407,
      "Ġglucose": 3408,
      "OR": 3409,
      "born": 3410,
      "can": 3411,
      "rum": 3412,
      "Ġtu": 3413,
      "Ġsem": 3414,
      "Ġcash": 3415,
      "Ġpub": 3416,
      "Ġmap": 3417,
      "Ġlose": 3418,
      "ĠCauses": 3419,
      "ĠSm": 3420,
      "ĠIll": 3421,
      "ĠMod": 3422,
      "ception": 3423,
      "ĠNot": 3424,
      "ĠNovember": 3425,
      "ĠInf": 3426,
      "ĠInform": 3427,
      "ĠAnt": 3428,
      "Ġroot": 3429,
      "Ġ2012": 3430,
      "obal": 3431,
      "Ġinflu": 3432,
      "Ġbecame": 3433,
      "Ġtypical": 3434,
      "Ġmilitary": 3435,
      "Ġserious": 3436,
      "Ġaffects": 3437,
      "Ġcorpor": 3438,
      "Ġnearly": 3439,
      "Ġidea": 3440,
      "Ġsoftware": 3441,
      "Ġresponsible": 3442,
      "ĠFlorida": 3443,
      "ham": 3444,
      "nes": 3445,
      "Ġice": 3446,
      "Ġten": 3447,
      "Ġcra": 3448,
      "anish": 3449,
      "Ġdiv": 3450,
      "ĠTem": 3451,
      "Ġliqu": 3452,
      "ola": 3453,
      "ĠMen": 3454,
      "ĠMex": 3455,
      "Ġstore": 3456,
      "unction": 3457,
      "Ġshape": 3458,
      "ansas": 3459,
      "Ġarter": 3460,
      "ysis": 3461,
      "ropol": 3462,
      "inois": 3463,
      "Ġrenew": 3464,
      "Ġinternal": 3465,
      "Ġmultiple": 3466,
      "Ġbalance": 3467,
      "Ġarticle": 3468,
      "ĠMexic": 3469,
      "56": 3470,
      "AL": 3471,
      "normal": 3472,
      "och": 3473,
      "water": 3474,
      "xi": 3475,
      "Ġpork": 3476,
      "ĠSyn": 3477,
      "ĠSocial": 3478,
      "oli": 3479,
      "Ġorgans": 3480,
      "Ġwhose": 3481,
      "rad": 3482,
      "ĠDuring": 3483,
      "Ġvill": 3484,
      "ĠUp": 3485,
      "Ġabbrevi": 3486,
      "ague": 3487,
      "Ġclimate": 3488,
      "Ġroll": 3489,
      "ervation": 3490,
      "Ġaccept": 3491,
      "Ġmusic": 3492,
      "Ġretire": 3493,
      "Ġeffective": 3494,
      "Ġcentury": 3495,
      "wards": 3496,
      "cript": 3497,
      "Ġspeak": 3498,
      "ĠAtlanta": 3499,
      "ĠBritish": 3500,
      "oconut": 3501,
      "58": 3502,
      "hio": 3503,
      "mar": 3504,
      "year": 3505,
      "Â©": 3506,
      "Âª": 3507,
      "inct": 3508,
      "inical": 3509,
      "het": 3510,
      "Ġcord": 3511,
      "itiz": 3512,
      "Ġpict": 3513,
      "astern": 3514,
      "ĠTyp": 3515,
      "Ġlat": 3516,
      "ĠCode": 3517,
      "uration": 3518,
      "Ġbeef": 3519,
      "Ġbegins": 3520,
      "Ġvess": 3521,
      "Ġheight": 3522,
      "aining": 3523,
      "Ġplus": 3524,
      "Ġrot": 3525,
      "anged": 3526,
      "Ġcoll": 3527,
      "Ġfeatures": 3528,
      "Ġscreen": 3529,
      "Ġgetting": 3530,
      "Ġsmok": 3531,
      "Ġmetal": 3532,
      "volution": 3533,
      "ĠIndia": 3534,
      "Ġbasic": 3535,
      "vision": 3536,
      "Ġmaterials": 3537,
      "Ġperformance": 3538,
      "Ġportion": 3539,
      "Ġdirectly": 3540,
      "Ġhappen": 3541,
      "Ġdollars": 3542,
      "Ġfinancial": 3543,
      "Ġpiece": 3544,
      "ĠPacific": 3545,
      "37": 3546,
      "39": 3547,
      "OS": 3548,
      "ians": 3549,
      "ned": 3550,
      "rong": 3551,
      "Â³": 3552,
      "Ġtrees": 3553,
      "rect": 3554,
      "Ġsodium": 3555,
      "Ġcateg": 3556,
      "Ġisland": 3557,
      "ĠSupp": 3558,
      "Ġever": 3559,
      "Ġgast": 3560,
      "ĠFree": 3561,
      "thritis": 3562,
      "ĠRob": 3563,
      "ĠEg": 3564,
      "Ġchrom": 3565,
      "ĠOut": 3566,
      "ella": 3567,
      "Ġ45": 3568,
      "Ġclos": 3569,
      "Ġflight": 3570,
      "Ġflower": 3571,
      "Ġquar": 3572,
      "ĠConf": 3573,
      "jective": 3574,
      "ĠCommon": 3575,
      "Ġsupply": 3576,
      "Ġhealthy": 3577,
      "Ġsolution": 3578,
      "Ġamounts": 3579,
      "ĠCollege": 3580,
      "Ġpoints": 3581,
      "Ġpaper": 3582,
      "Ġeasily": 3583,
      "Ġphotos": 3584,
      "iciency": 3585,
      "Ġpenalty": 3586,
      "onyms": 3587,
      "Ġprocedure": 3588,
      "Ġsignificant": 3589,
      ".)": 3590,
      "AP": 3591,
      "go": 3592,
      "ray": 3593,
      "rate": 3594,
      "alian": 3595,
      "Ġbul": 3596,
      "Ġang": 3597,
      "Ġdictionary": 3598,
      "ĠCr": 3599,
      "ĠCredit": 3600,
      "utive": 3601,
      "ĠMont": 3602,
      "Ġstren": 3603,
      "odies": 3604,
      "unt": 3605,
      "ained": 3606,
      "Ġsuff": 3607,
      "bert": 3608,
      "ĠWhy": 3609,
      "Ġcolors": 3610,
      "ĠChrist": 3611,
      "Ġdied": 3612,
      "ext": 3613,
      "Ġorganization": 3614,
      "ĠOrig": 3615,
      "Ġspeed": 3616,
      "Ġmarried": 3617,
      "strual": 3618,
      "Ġverb": 3619,
      "Ġlungs": 3620,
      "Ġrecommended": 3621,
      "Ġbehind": 3622,
      "ĠMedicare": 3623,
      "Ġapplied": 3624,
      "ĠCurrent": 3625,
      "cal": 3626,
      "ga": 3627,
      "ju": 3628,
      "round": 3629,
      "ued": 3630,
      "Ġ>": 3631,
      "Ġtit": 3632,
      "head": 3633,
      "ona": 3634,
      "oric": 3635,
      "Ġthin": 3636,
      "Ġreach": 3637,
      "idents": 3638,
      "ĠMad": 3639,
      "ĠBank": 3640,
      "ĠHel": 3641,
      "thing": 3642,
      "Ġconduct": 3643,
      "ĠitÃ¢": 3644,
      "Ġvoice": 3645,
      "ĠNo": 3646,
      "ached": 3647,
      "aryn": 3648,
      "Ġ32": 3649,
      "agon": 3650,
      "ously": 3651,
      "Ġprep": 3652,
      "Ġscient": 3653,
      "Ġpersonal": 3654,
      "Ġstarting": 3655,
      "Ġrefriger": 3656,
      "ĠExp": 3657,
      "Ġremove": 3658,
      "cycl": 3659,
      "Ġclear": 3660,
      "Ġeyes": 3661,
      "ĠEuropean": 3662,
      "burg": 3663,
      "ĠVirgin": 3664,
      "Ġestablished": 3665,
      "Ġphrase": 3666,
      "ĠIllinois": 3667,
      "29": 3668,
      "49": 3669,
      "86": 3670,
      "gon": 3671,
      "ping": 3672,
      "Ġtell": 3673,
      "Ġach": 3674,
      "hel": 3675,
      "atab": 3676,
      "ators": 3677,
      "atives": 3678,
      "Ġow": 3679,
      "Ġsus": 3680,
      "Ġcore": 3681,
      "Ġwest": 3682,
      "Ġbillion": 3683,
      "ĠTest": 3684,
      "ota": 3685,
      "ĠII": 3686,
      "ĠMem": 3687,
      "ĠMiss": 3688,
      "ĠBro": 3689,
      "ĠDri": 3690,
      "ositive": 3691,
      "Ġrib": 3692,
      "illing": 3693,
      "Ġunique": 3694,
      "ffee": 3695,
      "Ġclose": 3696,
      "mercial": 3697,
      "Ġ2011": 3698,
      "ĠUnion": 3699,
      "Ġaccom": 3700,
      "Ġregul": 3701,
      "ĠWeb": 3702,
      "Ġsecurity": 3703,
      "ĠClass": 3704,
      "Ġdetail": 3705,
      "Ġcentral": 3706,
      "Ġproperties": 3707,
      "Ġvitamins": 3708,
      "Ġcooking": 3709,
      "Ġlanguages": 3710,
      "ophy": 3711,
      "roduction": 3712,
      "Ġdetermine": 3713,
      "Ġcounter": 3714,
      "47": 3715,
      "PS": 3716,
      "lim": 3717,
      "men": 3718,
      "set": 3719,
      "ÃĦ": 3720,
      "Ġast": 3721,
      "atform": 3722,
      "orge": 3723,
      "itc": 3724,
      "ctic": 3725,
      "Ġnose": 3726,
      "ĠMo": 3727,
      "ĠMal": 3728,
      "ĠMac": 3729,
      "ĠBi": 3730,
      "ĠBu": 3731,
      "ĠFind": 3732,
      "ĠRuss": 3733,
      "Ġrank": 3734,
      "abit": 3735,
      "Ġmeet": 3736,
      "ager": 3737,
      "Ġcolon": 3738,
      "anced": 3739,
      "ologist": 3740,
      "Ġbelieve": 3741,
      "Ġmembr": 3742,
      "Ġplayer": 3743,
      "Ġleading": 3744,
      "ĠAmazon": 3745,
      "Ġeasy": 3746,
      "ĠServices": 3747,
      "Ġcarbon": 3748,
      "Ġpriv": 3749,
      "ĠAfrican": 3750,
      "AD": 3751,
      "IC": 3752,
      "ford": 3753,
      "nam": 3754,
      "hea": 3755,
      "heast": 3756,
      "Ġsold": 3757,
      "orado": 3758,
      "Ġfit": 3759,
      "Ġfix": 3760,
      "itude": 3761,
      "Ġbud": 3762,
      "Ġanal": 3763,
      "Ġhtt": 3764,
      "ĠTV": 3765,
      "Ġeating": 3766,
      "verse": 3767,
      "imin": 3768,
      "utch": 3769,
      "ĠMc": 3770,
      "ĠWhere": 3771,
      "estions": 3772,
      "Ġdoor": 3773,
      "Ġshot": 3774,
      "Ġabdom": 3775,
      "order": 3776,
      "soft": 3777,
      "ĠItalian": 3778,
      "Ġdiscover": 3779,
      "Ġcoast": 3780,
      "Ġteasp": 3781,
      "Ġcommun": 3782,
      "Ġ90": 3783,
      "Ġprocesses": 3784,
      "Ġgrowing": 3785,
      "Ġrights": 3786,
      "Ġlarger": 3787,
      "Ġsuggest": 3788,
      "Ġcrime": 3789,
      "Ġloan": 3790,
      "ĠTechn": 3791,
      "Ġimmune": 3792,
      "Ġissue": 3793,
      "Ġegg": 3794,
      "Ġthought": 3795,
      "istered": 3796,
      "ukary": 3797,
      "Ġintestine": 3798,
      "ropolitan": 3799,
      "'.": 3800,
      "SP": 3801,
      "kl": 3802,
      "range": 3803,
      "Âģ": 3804,
      "Ġiron": 3805,
      "atically": 3806,
      "Ġtheory": 3807,
      "Ġfather": 3808,
      "Ġbot": 3809,
      "Ġband": 3810,
      "Ġboy": 3811,
      "Ġinit": 3812,
      "Ġdouble": 3813,
      "ĠTur": 3814,
      "Ġthous": 3815,
      "ĠCour": 3816,
      "ĠCons": 3817,
      "ĠSchool": 3818,
      "Ġeight": 3819,
      "Ġgland": 3820,
      "lying": 3821,
      "oday": 3822,
      "Ġalthough": 3823,
      "Ġvaries": 3824,
      "ocra": 3825,
      "Ġchronic": 3826,
      "ĠJust": 3827,
      "Ġcompet": 3828,
      "Ġsyll": 3829,
      "ensity": 3830,
      "Ġcausing": 3831,
      "Ġspring": 3832,
      "ĠUnder": 3833,
      "ĠChina": 3834,
      "Ġserving": 3835,
      "Ġexpensive": 3836,
      "Ġprescription": 3837,
      "swers": 3838,
      "Ġapproved": 3839,
      "Ġmedicine": 3840,
      "Ġemployee": 3841,
      "Ġpotential": 3842,
      "Ġcourt": 3843,
      "Ġreported": 3844,
      "Ġcapital": 3845,
      "Ġinternational": 3846,
      "ĠCheck": 3847,
      "Ġhormones": 3848,
      "Ġsafe": 3849,
      "Ġsafety": 3850,
      "Ġelectricity": 3851,
      "Ġenzyme": 3852,
      "Ġlicense": 3853,
      "Ġdiagn": 3854,
      "ĠHistory": 3855,
      "ĠBureau": 3856,
      "Ġliquid": 3857,
      "aud": 3858,
      "now": 3859,
      "va": 3860,
      "erate": 3861,
      "Ġoz": 3862,
      "Ġfight": 3863,
      "Ġfoll": 3864,
      "roy": 3865,
      "roat": 3866,
      "ĠSur": 3867,
      "ĠIRS": 3868,
      "Ġstory": 3869,
      "ĠDel": 3870,
      "ĠHouse": 3871,
      "term": 3872,
      "Ġitems": 3873,
      "Ġprob": 3874,
      "ĠRNA": 3875,
      "ĠGod": 3876,
      "Ġseeds": 3877,
      "Ġshown": 3878,
      "Ġperf": 3879,
      "Ġplastic": 3880,
      "arden": 3881,
      "Ġclick": 3882,
      "Ġupd": 3883,
      "Ġproduces": 3884,
      "ymph": 3885,
      "ĠMean": 3886,
      "Ġplayed": 3887,
      "Ġelement": 3888,
      "Ġreactions": 3889,
      "ĠGermany": 3890,
      "Ġbeginning": 3891,
      "Ġhyper": 3892,
      "ĠAfrica": 3893,
      "Ġadjust": 3894,
      "Ġquickly": 3895,
      "Ġestimated": 3896,
      "Ġhorse": 3897,
      "ĠBecause": 3898,
      "ĠInformation": 3899,
      "eur": 3900,
      "ta": 3901,
      "Ġol": 3902,
      "Ġcm": 3903,
      "Ġcele": 3904,
      "Ġbird": 3905,
      "Ġmind": 3906,
      "Ġdraw": 3907,
      "asks": 3908,
      "Ġhost": 3909,
      "ĠTen": 3910,
      "ilies": 3911,
      "Ġnar": 3912,
      "ĠCam": 3913,
      "ĠCensus": 3914,
      "Ġec": 3915,
      "Ġformer": 3916,
      "Ġ150": 3917,
      "Ġbeaut": 3918,
      "ades": 3919,
      "Ġvia": 3920,
      "ĠName": 3921,
      "ĠOhio": 3922,
      "Ġabnormal": 3923,
      "Ġneck": 3924,
      "Ġcontent": 3925,
      "Ġ500": 3926,
      "Ġspinal": 3927,
      "ĠChic": 3928,
      "Ġskills": 3929,
      "Ġcurren": 3930,
      "Ġmanagement": 3931,
      "ĠExt": 3932,
      "Ġbrand": 3933,
      "Ġslightly": 3934,
      "Ġsigns": 3935,
      "Ġcareer": 3936,
      "Ġbasis": 3937,
      "Ġindividuals": 3938,
      "Ġsouthern": 3939,
      "Ġfemale": 3940,
      "Ġderived": 3941,
      "Ġcompletely": 3942,
      "Ġdivided": 3943,
      "Ġmortgage": 3944,
      "Ġcarbohydrates": 3945,
      "ĠVirginia": 3946,
      "23": 3947,
      "48": 3948,
      "76": 3949,
      "ael": 3950,
      "hood": 3951,
      "ipe": 3952,
      "joy": 3953,
      "kins": 3954,
      "Ġult": 3955,
      "Ġtong": 3956,
      "Ġaver": 3957,
      "reme": 3958,
      "Ġop": 3959,
      "Ġobs": 3960,
      "Ġsand": 3961,
      "Ġcame": 3962,
      "ald": 3963,
      "Ġfair": 3964,
      "Ġfinger": 3965,
      "Ġbound": 3966,
      "arian": 3967,
      "Ġden": 3968,
      "Ġdys": 3969,
      "omin": 3970,
      "Ġnerve": 3971,
      "ĠCor": 3972,
      "Ġgot": 3973,
      "uries": 3974,
      "ĠDictionary": 3975,
      "Ġ29": 3976,
      "ĠHI": 3977,
      "adder": 3978,
      "Ġrub": 3979,
      "Ġrules": 3980,
      "ĠOl": 3981,
      "ĠUK": 3982,
      "Ġperman": 3983,
      "place": 3984,
      "ondon": 3985,
      "Ġgene": 3986,
      "ĠAmericans": 3987,
      "Ġregard": 3988,
      "Ġinstit": 3989,
      "ĠSpanish": 3990,
      "Ġswelling": 3991,
      "ÃīÂª": 3992,
      "augh": 3993,
      "ĠMountain": 3994,
      "Ġgreater": 3995,
      "Ġmotor": 3996,
      "Ġexercise": 3997,
      "Ġchromos": 3998,
      "'m": 3999,
      "MD": 4000,
      "car": 4001,
      "ds": 4002,
      "kal": 4003,
      "long": 4004,
      "nown": 4005,
      "self": 4006,
      "vin": 4007,
      "Ġtun": 4008,
      "reated": 4009,
      "Ġov": 4010,
      "Ġtherm": 4011,
      "Ġsides": 4012,
      "Ġcos": 4013,
      "Ġcities": 4014,
      "orage": 4015,
      "Ġpig": 4016,
      "Ġball": 4017,
      "Ġmale": 4018,
      "Ġli": 4019,
      "iles": 4020,
      "Ġnit": 4021,
      "Ġreasons": 4022,
      "ĠMass": 4023,
      "Ġconcent": 4024,
      "ads": 4025,
      "Ġring": 4026,
      "Ġchance": 4027,
      "anger": 4028,
      "Ġindepend": 4029,
      "Ġ75": 4030,
      "Ġsurround": 4031,
      "ĠProgram": 4032,
      "Ġstands": 4033,
      "Ġincreased": 4034,
      "Ġdriving": 4035,
      "annel": 4036,
      "Ġtissues": 4037,
      "aska": 4038,
      "Ġrecords": 4039,
      "Ġhydrogen": 4040,
      "Ġfriends": 4041,
      "Ġjuice": 4042,
      "Ġyoung": 4043,
      "ĠLabor": 4044,
      "Ġrespiratory": 4045,
      "Ġretirement": 4046,
      "):": 4047,
      "42": 4048,
      "55": 4049,
      "ses": 4050,
      "ship": 4051,
      "wide": 4052,
      "inter": 4053,
      "Ġcere": 4054,
      "orie": 4055,
      "Ġwed": 4056,
      "Ġfib": 4057,
      "Ġbox": 4058,
      "Ġmic": 4059,
      "asm": 4060,
      "ĠToday": 4061,
      "Ġlif": 4062,
      "Ġlack": 4063,
      "ĠArab": 4064,
      "Ġnormally": 4065,
      "ĠCong": 4066,
      "urch": 4067,
      "ĠMa": 4068,
      "ĠWater": 4069,
      "ĠDen": 4070,
      "ĠData": 4071,
      "ĠHis": 4072,
      "ĠFull": 4073,
      "ĠLou": 4074,
      "ĠGolden": 4075,
      "pped": 4076,
      "Ġsequ": 4077,
      "ptom": 4078,
      "Ġuniversity": 4079,
      "ĠStud": 4080,
      "ipitation": 4081,
      "ĠJe": 4082,
      "izing": 4083,
      "ĠVi": 4084,
      "Ġbutton": 4085,
      "onda": 4086,
      "Ġdeficiency": 4087,
      "Ġhourly": 4088,
      "Ġdepos": 4089,
      "Ġworkers": 4090,
      "ronym": 4091,
      "Ġprovided": 4092,
      "ociety": 4093,
      "Ġgroups": 4094,
      "Ġmaintain": 4095,
      "Ġschools": 4096,
      "Ġlowest": 4097,
      "Ġdirection": 4098,
      "Ġlaws": 4099,
      "Ġcorrect": 4100,
      "Ġcharacteristics": 4101,
      "ĠGeneral": 4102,
      "Ġhappens": 4103,
      "Ġdrinking": 4104,
      "Ġvaccine": 4105,
      "error": 4106,
      "ĠMicrosoft": 4107,
      "aid": 4108,
      "lob": 4109,
      "lier": 4110,
      "mat": 4111,
      "Ġut": 4112,
      "Ġtables": 4113,
      "Ġax": 4114,
      "erals": 4115,
      "Ġfavor": 4116,
      "Ġpoll": 4117,
      "Ġpull": 4118,
      "Ġbones": 4119,
      "Ġmer": 4120,
      "Ġmut": 4121,
      "Ġtook": 4122,
      "Ġled": 4123,
      "ilver": 4124,
      "otion": 4125,
      "unc": 4126,
      "ĠBre": 4127,
      "umn": 4128,
      "ĠHill": 4129,
      "ĠFre": 4130,
      "Ġconcer": 4131,
      "ĠLast": 4132,
      "ears": 4133,
      "Ġlease": 4134,
      "duc": 4135,
      "ĠJames": 4136,
      "Ġadapt": 4137,
      "Ġjo": 4138,
      "Ġdisp": 4139,
      "Ġ55": 4140,
      "neys": 4141,
      "ĠConstitution": 4142,
      "Ġexpect": 4143,
      "ergic": 4144,
      "Ġserve": 4145,
      "Ġdecre": 4146,
      "Ġpoly": 4147,
      "ĠdonÃ¢": 4148,
      "Ġhousehold": 4149,
      "Ġprimarily": 4150,
      "Ġsteps": 4151,
      "Ġcomponents": 4152,
      "Ġpublished": 4153,
      "xiety": 4154,
      "Ġstrength": 4155,
      "MA": 4156,
      "iences": 4157,
      "mosp": 4158,
      "nia": 4159,
      "oids": 4160,
      "pire": 4161,
      "zing": 4162,
      "ÂĲ": 4163,
      "ini": 4164,
      "atur": 4165,
      "Ġsav": 4166,
      "Ġcou": 4167,
      "Ġcav": 4168,
      "Ġcred": 4169,
      "also": 4170,
      "Ġancient": 4171,
      "edy": 4172,
      "Ġmile": 4173,
      "ĠTerm": 4174,
      "omer": 4175,
      "Ġlip": 4176,
      "Ġthick": 4177,
      "Ġthyroid": 4178,
      "ĠIr": 4179,
      "igan": 4180,
      "iment": 4181,
      "ĠPA": 4182,
      "ĠHot": 4183,
      "ĠEduc": 4184,
      "ĠLondon": 4185,
      "ought": 4186,
      "ĠView": 4187,
      "Ġspend": 4188,
      "Ġresist": 4189,
      "Ġarch": 4190,
      "Ġcoffee": 4191,
      "Ġmoving": 4192,
      "ĠEng": 4193,
      "ariju": 4194,
      "athy": 4195,
      "Ġtransfer": 4196,
      "Ġmodels": 4197,
      "Ġairport": 4198,
      "Ġvalve": 4199,
      "Ġbreed": 4200,
      "Ġincreases": 4201,
      "Ġcooked": 4202,
      "Ġprotect": 4203,
      "Ġsubstances": 4204,
      "Ġcovered": 4205,
      "ledge": 4206,
      "Ġnuclear": 4207,
      "Ġlearn": 4208,
      "Ġwinter": 4209,
      "regon": 4210,
      "orporated": 4211,
      "Ġrouting": 4212,
      "Ġoptions": 4213,
      "Ġburning": 4214,
      "ĠOffice": 4215,
      "Ġillness": 4216,
      "itizens": 4217,
      "Ġtongue": 4218,
      "arijuana": 4219,
      "89": 4220,
      "ES": 4221,
      "call": 4222,
      "come": 4223,
      "gers": 4224,
      "hyd": 4225,
      "Ġversion": 4226,
      "Ġaid": 4227,
      "Ġcort": 4228,
      "Ġcough": 4229,
      "Ġcrit": 4230,
      "Ġfront": 4231,
      "ites": 4232,
      "Ġpath": 4233,
      "icated": 4234,
      "leg": 4235,
      "enter": 4236,
      "Ġgerm": 4237,
      "char": 4238,
      "ĠMond": 4239,
      "raft": 4240,
      "Ġstone": 4241,
      "ĠBet": 4242,
      "ĠDown": 4243,
      "ĠHaw": 4244,
      "Ġconver": 4245,
      "ership": 4246,
      "Ġvote": 4247,
      "aks": 4248,
      "ĠNow": 4249,
      "rier": 4250,
      "Ġsea": 4251,
      "ellular": 4252,
      "Ġ31": 4253,
      "Ġneur": 4254,
      "Ġnever": 4255,
      "ĠSte": 4256,
      "ĠStreet": 4257,
      "ipment": 4258,
      "Ġcompound": 4259,
      "Ġfloor": 4260,
      "Ġquant": 4261,
      "Ġscience": 4262,
      "Ġcheese": 4263,
      "venue": 4264,
      "Ġminute": 4265,
      "Ġpaying": 4266,
      "Ġsetting": 4267,
      "Ġseconds": 4268,
      "thetic": 4269,
      "Ġboard": 4270,
      "ĠAccount": 4271,
      "Ġvisual": 4272,
      "mitted": 4273,
      "Ġlimit": 4274,
      "Ġissues": 4275,
      "Ġadults": 4276,
      "Ġtelevision": 4277,
      "Ġsweet": 4278,
      "Ġnorthern": 4279,
      "Ġexactly": 4280,
      "Ġvessels": 4281,
      "Ġowl": 4282,
      "59": 4283,
      "ED": 4284,
      "Ġens": 4285,
      "Ġtaste": 4286,
      "reas": 4287,
      "Ġcram": 4288,
      "Ġwatch": 4289,
      "Ġmi": 4290,
      "Ġnature": 4291,
      "ĠSaf": 4292,
      "change": 4293,
      "ĠMain": 4294,
      "rag": 4295,
      "Ġstage": 4296,
      "Ġstress": 4297,
      "ĠHum": 4298,
      "ĠFall": 4299,
      "ĠRate": 4300,
      "Ġriver": 4301,
      "istry": 4302,
      "aint": 4303,
      "Ġchoose": 4304,
      "Ġseal": 4305,
      "Ġwheel": 4306,
      "ĠStand": 4307,
      "ipedia": 4308,
      "Ġ43": 4309,
      "Ġcoverage": 4310,
      "orning": 4311,
      "ausea": 4312,
      "Ġsmaller": 4313,
      "Ġbring": 4314,
      "Ġvalues": 4315,
      "Ġdecay": 4316,
      "Ġpolicy": 4317,
      "Ġsolid": 4318,
      "Ġplayers": 4319,
      "Ġcustomers": 4320,
      "Ġdescribe": 4321,
      "iami": 4322,
      "Ġpowder": 4323,
      "atabase": 4324,
      "Ġmembrane": 4325,
      "87": 4326,
      "IS": 4327,
      "MC": 4328,
      "bed": 4329,
      "Ġsell": 4330,
      "Ġcrown": 4331,
      "Ġfarm": 4332,
      "Ġfully": 4333,
      "iter": 4334,
      "Ġtox": 4335,
      "Ġhol": 4336,
      "Ġhous": 4337,
      "ĠTown": 4338,
      "ĠAirl": 4339,
      "ĠCa": 4340,
      "ĠCap": 4341,
      "ĠSince": 4342,
      "ĠIN": 4343,
      "Ġstored": 4344,
      "ĠWood": 4345,
      "ĠBas": 4346,
      "ĠDr": 4347,
      "allow": 4348,
      "Ġatmosp": 4349,
      "ĠOld": 4350,
      "Ġking": 4351,
      "Ġ400": 4352,
      "Ġdisability": 4353,
      "orses": 4354,
      "Ġacet": 4355,
      "Ġchest": 4356,
      "Ġorganic": 4357,
      "Ġrepair": 4358,
      "Ġbreast": 4359,
      "ropical": 4360,
      "Ġknowledge": 4361,
      "ĠBlue": 4362,
      "ĠColumb": 4363,
      "Ġopening": 4364,
      "ĠDisney": 4365,
      "ediatric": 4366,
      "ĠSuper": 4367,
      "Ġtools": 4368,
      "Ġeconomic": 4369,
      "Ġrobot": 4370,
      "arrhea": 4371,
      "ĠFamily": 4372,
      "Ġfailure": 4373,
      "Ġpolitical": 4374,
      "Ġprincip": 4375,
      "31": 4376,
      "cin": 4377,
      "house": 4378,
      "vity": 4379,
      "Ġtalk": 4380,
      "Ġaward": 4381,
      "onor": 4382,
      "Ġfo": 4383,
      "Ġfuel": 4384,
      "Ġbed": 4385,
      "leb": 4386,
      "leas": 4387,
      "ĠTreat": 4388,
      "ĠSen": 4389,
      "Ġorange": 4390,
      "ĠPy": 4391,
      "ĠDE": 4392,
      "empt": 4393,
      "ĠList": 4394,
      "Ġusers": 4395,
      "ĠOb": 4396,
      "sec": 4397,
      "rug": 4398,
      "Ġgrand": 4399,
      "Ġparty": 4400,
      "Ġagent": 4401,
      "Ġchecks": 4402,
      "Ġmineral": 4403,
      "Ġminerals": 4404,
      "Ġhighly": 4405,
      "ĠAtt": 4406,
      "Ġdecision": 4407,
      "ĠBeach": 4408,
      "ĠPhot": 4409,
      "Ġanti": 4410,
      "Ġfunctions": 4411,
      "Ġfollowed": 4412,
      "Ġaffected": 4413,
      "Ġproperly": 4414,
      "Ġelev": 4415,
      "Ġlimited": 4416,
      "Ġkidneys": 4417,
      "Ġprior": 4418,
      "Ġbonds": 4419,
      "ĠAssoci": 4420,
      "Ġbehav": 4421,
      "Ġparent": 4422,
      "Ġsentence": 4423,
      "Ġprecipitation": 4424,
      "Ġreplacement": 4425,
      "Ġdebt": 4426,
      "Ġbowel": 4427,
      "ĠCustomer": 4428,
      "ĠAustralia": 4429,
      "BC": 4430,
      "care": 4431,
      "hing": 4432,
      "lines": 4433,
      "mic": 4434,
      "Ãı": 4435,
      "Ġtarget": 4436,
      "orph": 4437,
      "Ġbott": 4438,
      "Ġmel": 4439,
      "lements": 4440,
      "ĠTues": 4441,
      "iling": 4442,
      "ĠAPI": 4443,
      "ctors": 4444,
      "ĠSch": 4445,
      "Ġgives": 4446,
      "ĠMap": 4447,
      "ĠPri": 4448,
      "ĠWork": 4449,
      "ĠBig": 4450,
      "ĠBody": 4451,
      "ĠFire": 4452,
      "ĠFollow": 4453,
      "Ġconstruction": 4454,
      "Ġprogress": 4455,
      "ĠRoth": 4456,
      "iva": 4457,
      "ources": 4458,
      "acts": 4459,
      "ĠStar": 4460,
      "ĠJo": 4461,
      "aped": 4462,
      "ĠYes": 4463,
      "Ġpred": 4464,
      "rows": 4465,
      "Ġlocations": 4466,
      "lication": 4467,
      "ĠArch": 4468,
      "Ġinstru": 4469,
      "ĠPlan": 4470,
      "Ġestimate": 4471,
      "Ġbooks": 4472,
      "Ġpassed": 4473,
      "ĠBlood": 4474,
      "Ġgradu": 4475,
      "Ġguide": 4476,
      "Ġlooks": 4477,
      "Ġaccounts": 4478,
      "ĠFriday": 4479,
      "........": 4480,
      "Ġdomin": 4481,
      "ĠWikipedia": 4482,
      "ĠMichigan": 4483,
      "Ġvillage": 4484,
      "arynx": 4485,
      "ocracy": 4486,
      "ĠLouis": 4487,
      "ĠEngland": 4488,
      "44": 4489,
      "BS": 4490,
      "ID": 4491,
      "bu": 4492,
      "oat": 4493,
      "right": 4494,
      "wise": 4495,
      "atively": 4496,
      "Ġsection": 4497,
      "Ġsizes": 4498,
      "orical": 4499,
      "Ġpy": 4500,
      "Ġplease": 4501,
      "Ġbur": 4502,
      "Ġmat": 4503,
      "Ġmild": 4504,
      "Ġmobile": 4505,
      "omen": 4506,
      "Ġlove": 4507,
      "ĠAN": 4508,
      "Ġgam": 4509,
      "amples": 4510,
      "Ġ1000": 4511,
      "igation": 4512,
      "imm": 4513,
      "uted": 4514,
      "Ġ($": 4515,
      "ĠDise": 4516,
      "uments": 4517,
      "ĠFair": 4518,
      "emb": 4519,
      "ĠRich": 4520,
      "ĠRout": 4521,
      "Ġvas": 4522,
      "Ġrh": 4523,
      "Ġrule": 4524,
      "ander": 4525,
      "Ġdoing": 4526,
      "rial": 4527,
      "ĠUl": 4528,
      "ĠInst": 4529,
      "ours": 4530,
      "oglob": 4531,
      "ĠAnn": 4532,
      "ĠAny": 4533,
      "apor": 4534,
      "Ġ59": 4535,
      "Ġenjoy": 4536,
      "Ġspot": 4537,
      "ulture": 4538,
      "ĠChild": 4539,
      "Ġtrack": 4540,
      "Ġacute": 4541,
      "Ġoverall": 4542,
      "Ġsmell": 4543,
      "Ġoffices": 4544,
      "Ġrecogn": 4545,
      "Ġpoison": 4546,
      "ydia": 4547,
      "Ġsett": 4548,
      "Ġstudent": 4549,
      "ahoma": 4550,
      "Ġauto": 4551,
      "Ġplanning": 4552,
      "Ġoriginally": 4553,
      "Ġstrateg": 4554,
      "Ġcombination": 4555,
      "ĠRobert": 4556,
      "Ġwindow": 4557,
      "ĠJohnson": 4558,
      "Ġdevices": 4559,
      "Ġwonder": 4560,
      "icians": 4561,
      "ĠAtlas": 4562,
      "Ġparents": 4563,
      "ĠCharles": 4564,
      "Ġdocument": 4565,
      "Ġirrit": 4566,
      "Ġfigure": 4567,
      "ENT": 4568,
      "Ġdistribution": 4569,
      "Ġdisplay": 4570,
      "cyclop": 4571,
      "66": 4572,
      "RNA": 4573,
      "ba": 4574,
      "lation": 4575,
      "nd": 4576,
      "pm": 4577,
      "such": 4578,
      "uit": 4579,
      "Ġod": 4580,
      "Ġsample": 4581,
      "Ġcart": 4582,
      "organ": 4583,
      "Ġwalk": 4584,
      "Ġbab": 4585,
      "Ġmal": 4586,
      "Ġmach": 4587,
      "Ġmission": 4588,
      "ĠTurn": 4589,
      "Ġlob": 4590,
      "entially": 4591,
      "amm": 4592,
      "otal": 4593,
      "vey": 4594,
      "ĠId": 4595,
      "Ġorbit": 4596,
      "uture": 4597,
      "ĠPay": 4598,
      "Ġstri": 4599,
      "Ġstorage": 4600,
      "ĠWall": 4601,
      "ĠHy": 4602,
      "osal": 4603,
      "ĠFL": 4604,
      "Ġalone": 4605,
      "Ġvi": 4606,
      "Ġheavy": 4607,
      "ĠOkl": 4608,
      "Ġkids": 4609,
      "endar": 4610,
      "Ġclosed": 4611,
      "Ġjud": 4612,
      "Ġappoint": 4613,
      "phone": 4614,
      "ieved": 4615,
      "Ġquite": 4616,
      "Ġmoon": 4617,
      "Ġages": 4618,
      "Ġgoal": 4619,
      "Ġassess": 4620,
      "Ġ189": 4621,
      "ĠNews": 4622,
      "nessee": 4623,
      "Ġfung": 4624,
      "Ġentry": 4625,
      "Ġfamilies": 4626,
      "ĠOnce": 4627,
      "ĠPhone": 4628,
      "Ġrunning": 4629,
      "Ġshel": 4630,
      "Ġswitch": 4631,
      "Ġbacterial": 4632,
      "Ġelse": 4633,
      "Ġtechnology": 4634,
      "Ġnutrition": 4635,
      "Ġbiggest": 4636,
      "ĠEdit": 4637,
      "ography": 4638,
      "Ġidentify": 4639,
      "Ġconstant": 4640,
      "ĠSecurity": 4641,
      "Ġautomatically": 4642,
      "Ġconcrete": 4643,
      "ĠRelated": 4644,
      "Ġvegetables": 4645,
      "Ġgarage": 4646,
      "Ġdigestive": 4647,
      "ĠSpecial": 4648,
      "Ġprobably": 4649,
      "Ġwedding": 4650,
      "ĠEducation": 4651,
      "53": 4652,
      "AR": 4653,
      "II": 4654,
      "IP": 4655,
      "ban": 4656,
      "bell": 4657,
      "ias": 4658,
      "known": 4659,
      "oz": 4660,
      "oons": 4661,
      "town": 4662,
      "uation": 4663,
      "vada": 4664,
      "yst": 4665,
      "Ġ)": 4666,
      "Ġic": 4667,
      "Ġaud": 4668,
      "rehens": 4669,
      "Ġson": 4670,
      "oral": 4671,
      "Ġfro": 4672,
      "Ġfab": 4673,
      "Ġfats": 4674,
      "Ġpal": 4675,
      "Ġanemia": 4676,
      "Ġanxiety": 4677,
      "Ġmph": 4678,
      "ica": 4679,
      "ĠTake": 4680,
      "usive": 4681,
      "Ġnurse": 4682,
      "Ġthroat": 4683,
      "Ġgiving": 4684,
      "ĠMark": 4685,
      "Ġbear": 4686,
      "ĠElect": 4687,
      "Ġround": 4688,
      "ĠOregon": 4689,
      "inegar": 4690,
      "Ġsud": 4691,
      "Ġplans": 4692,
      "action": 4693,
      "ĠJr": 4694,
      "Ġcompounds": 4695,
      "Ġspect": 4696,
      "Ġarthritis": 4697,
      "Ġroad": 4698,
      "Ġknee": 4699,
      "Ġacre": 4700,
      "Ġbecomes": 4701,
      "Ġrelig": 4702,
      "Ġregional": 4703,
      "Ġnovel": 4704,
      "Ġprescrib": 4705,
      "Ġmeters": 4706,
      "Ġstarts": 4707,
      "Ġestate": 4708,
      "ometers": 4709,
      "ployment": 4710,
      "Ġwriting": 4711,
      "ĠMountains": 4712,
      "Ġevents": 4713,
      "Ġinvolves": 4714,
      "ground": 4715,
      "iliar": 4716,
      "Ġpharmac": 4717,
      "01": 4718,
      "600": 4719,
      "AC": 4720,
      "Ph": 4721,
      "US": 4722,
      "ech": 4723,
      "foot": 4724,
      "ka": 4725,
      "part": 4726,
      "ris": 4727,
      "sa": 4728,
      "tion": 4729,
      "ypt": 4730,
      "ÃĬ": 4731,
      "inf": 4732,
      "inear": 4733,
      "atto": 4734,
      "Ġcross": 4735,
      "ĠpH": 4736,
      "Ġbill": 4737,
      "Ġbake": 4738,
      "Ġmuc": 4739,
      "Ġdrop": 4740,
      "ingle": 4741,
      "roke": 4742,
      "leet": 4743,
      "omiting": 4744,
      "Ġla": 4745,
      "Ġlives": 4746,
      "ett": 4747,
      "ĠCamp": 4748,
      "urt": 4749,
      "ĠPop": 4750,
      "Ġdecl": 4751,
      "Ġvs": 4752,
      "Ġrice": 4753,
      "Ġcommercial": 4754,
      "ocr": 4755,
      "ĠGal": 4756,
      "acters": 4757,
      "active": 4758,
      "Ġneg": 4759,
      "merg": 4760,
      "ĠKe": 4761,
      "anging": 4762,
      "Ġcalls": 4763,
      "Ġformula": 4764,
      "Ġminor": 4765,
      "ĠSelect": 4766,
      "Ġtherefore": 4767,
      "ethyl": 4768,
      "Ġrelax": 4769,
      "ĠEngine": 4770,
      "ĠHead": 4771,
      "Ġpoor": 4772,
      "Ġpersonality": 4773,
      "Ġpaint": 4774,
      "Ġpayment": 4775,
      "Ġrefund": 4776,
      "Ġexamples": 4777,
      "Ġdetails": 4778,
      "Ġplanet": 4779,
      "Ġactivities": 4780,
      "aptop": 4781,
      "ursing": 4782,
      "Ġradiation": 4783,
      "rophy": 4784,
      "Ġlayer": 4785,
      "ĠWilliam": 4786,
      "--------": 4787,
      "Ġpurchase": 4788,
      "Ġmountain": 4789,
      "Ġcubic": 4790,
      "Ġturkey": 4791,
      "ĠAirport": 4792,
      "Ġounce": 4793,
      "ĠValley": 4794,
      "Ġratio": 4795,
      "ĠTemper": 4796,
      "Ġbudget": 4797,
      "Ġhttp": 4798,
      "Ġteaspoon": 4799,
      "Ġcelebr": 4800,
      "ĠOklahoma": 4801,
      "rehensive": 4802,
      "This": 4803,
      "box": 4804,
      "field": 4805,
      "nÃ¢": 4806,
      "wich": 4807,
      "ying": 4808,
      "Ġcivil": 4809,
      "isdom": 4810,
      "Ġmit": 4811,
      "Ġhorses": 4812,
      "ĠCard": 4813,
      "ĠCorpor": 4814,
      "Ġyet": 4815,
      "otor": 4816,
      "igration": 4817,
      "Ġconcept": 4818,
      "Ġconvert": 4819,
      "ĠRun": 4820,
      "ĠEv": 4821,
      "ĠLook": 4822,
      "ĠLife": 4823,
      "ĠGA": 4824,
      "Ġexec": 4825,
      "Ġplays": 4826,
      "Ġunless": 4827,
      "Ġneut": 4828,
      "Ġclause": 4829,
      "Ġencyclop": 4830,
      "Ġroots": 4831,
      "Ġmostly": 4832,
      "Ġpret": 4833,
      "Ġfever": 4834,
      "Ġsche": 4835,
      "Ġsched": 4836,
      "Ġscale": 4837,
      "Ġtrust": 4838,
      "Ġinsects": 4839,
      "Ġcalendar": 4840,
      "Ġreprodu": 4841,
      "Ġfamous": 4842,
      "Ġattend": 4843,
      "Ġattack": 4844,
      "Ġattention": 4845,
      "Ġbright": 4846,
      "Ġbranch": 4847,
      "Ġdetect": 4848,
      "Ġowner": 4849,
      "ĠLeague": 4850,
      "brid": 4851,
      "Ġdriver": 4852,
      "Ġmajority": 4853,
      "lamydia": 4854,
      "Ġimmedi": 4855,
      "Ġreturns": 4856,
      "ĠPrice": 4857,
      "Ġevidence": 4858,
      "Ġdescribes": 4859,
      "Ġholds": 4860,
      "Ġdollar": 4861,
      "Ġseparate": 4862,
      "Ġelectrons": 4863,
      "Ġtrue": 4864,
      "Ġingredients": 4865,
      "Ġvehicle": 4866,
      "quarters": 4867,
      "ĠDirect": 4868,
      "Ġfurther": 4869,
      "ĠBerlin": 4870,
      "ĠMexico": 4871,
      "ĠEgypt": 4872,
      "ĠCourt": 4873,
      "Ġcurrency": 4874,
      "Ġpermanent": 4875,
      "oglobin": 4876,
      "mergency": 4877,
      "150": 4878,
      "LE": 4879,
      "ios": 4880,
      "uction": 4881,
      "vant": 4882,
      "ÂŃ": 4883,
      "Ġtou": 4884,
      "Ġca": 4885,
      "Ġcodes": 4886,
      "Ġcoconut": 4887,
      "Ġwat": 4888,
      "Ġware": 4889,
      "Ġfold": 4890,
      "Ġfaster": 4891,
      "Ġbath": 4892,
      "arf": 4893,
      "Ġinv": 4894,
      "Ġhospital": 4895,
      "Ġlies": 4896,
      "ĠPD": 4897,
      "ĠPaul": 4898,
      "iring": 4899,
      "ĠHol": 4900,
      "ĠHonda": 4901,
      "ĠRoman": 4902,
      "ĠEch": 4903,
      "Ġ37": 4904,
      "Ġplatform": 4905,
      "Ġneu": 4906,
      "Ġneigh": 4907,
      "agen": 4908,
      "Ġcompared": 4909,
      "Ġadjective": 4910,
      "eph": 4911,
      "Ġenl": 4912,
      "Ġ190": 4913,
      "Ġphase": 4914,
      "Ġaccur": 4915,
      "iverse": 4916,
      "merican": 4917,
      "Ġassign": 4918,
      "Ġdiarrhea": 4919,
      "Ġexpected": 4920,
      "vention": 4921,
      "Ġextract": 4922,
      "Ġstudies": 4923,
      "Ġperiods": 4924,
      "fully": 4925,
      "undant": 4926,
      "Ġmenstrual": 4927,
      "Ġannually": 4928,
      "Ġoriginated": 4929,
      "ĠFrance": 4930,
      "Ġpowerful": 4931,
      "ĠNevada": 4932,
      "Ġphoto": 4933,
      "ĠAcadem": 4934,
      "Ġviruses": 4935,
      "Ġinvolved": 4936,
      "Ġrecommend": 4937,
      "Ġpurposes": 4938,
      "Ġdraft": 4939,
      "Ġenzymes": 4940,
      "Ġfrequently": 4941,
      "Ġexcessive": 4942,
      "selves": 4943,
      "Ġwireless": 4944,
      "Ġventric": 4945,
      "Ġgastro": 4946,
      "Ġtitle": 4947,
      "Ġrefrigerator": 4948,
      "ĠChicago": 4949,
      "ĠHawai": 4950,
      "ĠAirlines": 4951,
      "ĠColumbia": 4952,
      "250": 4953,
      "34": 4954,
      "65": 4955,
      "bum": 4956,
      "ira": 4957,
      "mary": 4958,
      "ril": 4959,
      "rim": 4960,
      "rant": 4961,
      "rite": 4962,
      "yond": 4963,
      "Ġu": 4964,
      "Ġer": 4965,
      "Ġtender": 4966,
      "Ġcats": 4967,
      "Ġwage": 4968,
      "Ġfill": 4969,
      "ara": 4970,
      "Ġmental": 4971,
      "Ġmorning": 4972,
      "Ġdie": 4973,
      "ione": 4974,
      "ĠType": 4975,
      "Ġlost": 4976,
      "ilot": 4977,
      "ĠAge": 4978,
      "Ġnausea": 4979,
      "Ġthread": 4980,
      "ĠSout": 4981,
      "Ġeukary": 4982,
      "amel": 4983,
      "amine": 4984,
      "oted": 4985,
      "ura": 4986,
      "ĠMiddle": 4987,
      "ĠPower": 4988,
      "ĠPract": 4989,
      "Ġ27": 4990,
      "ĠHydro": 4991,
      "ĠFace": 4992,
      "herry": 4993,
      "opia": 4994,
      "abilities": 4995,
      "ĠNort": 4996,
      "ĠLand": 4997,
      "Ġatom": 4998,
      "Ġexists": 4999
    },
    "merges": [
      [
        "Ġ",
        "t"
      ],
      [
        "Ġ",
        "a"
      ],
      [
        "i",
        "n"
      ],
      [
        "h",
        "e"
      ],
      [
        "e",
        "r"
      ],
      [
        "o",
        "n"
      ],
      [
        "r",
        "e"
      ],
      [
        "a",
        "t"
      ],
      [
        "Ġ",
        "o"
      ],
      [
        "Ġt",
        "he"
      ],
      [
        "Ġ",
        "s"
      ],
      [
        "Ġ",
        "c"
      ],
      [
        "i",
        "s"
      ],
      [
        "e",
        "s"
      ],
      [
        "a",
        "n"
      ],
      [
        "e",
        "n"
      ],
      [
        "o",
        "r"
      ],
      [
        "Ġ",
        "w"
      ],
      [
        "a",
        "l"
      ],
      [
        "Ġ",
        "f"
      ],
      [
        "i",
        "t"
      ],
      [
        "Ġ",
        "p"
      ],
      [
        "Ġ",
        "b"
      ],
      [
        "o",
        "u"
      ],
      [
        "Ġa",
        "n"
      ],
      [
        "Ġo",
        "f"
      ],
      [
        "a",
        "r"
      ],
      [
        "e",
        "d"
      ],
      [
        "Ġ",
        "m"
      ],
      [
        "Ġ",
        "in"
      ],
      [
        "i",
        "c"
      ],
      [
        "Ġ",
        "d"
      ],
      [
        "in",
        "g"
      ],
      [
        "Ġ",
        "is"
      ],
      [
        "Ġan",
        "d"
      ],
      [
        "Ġt",
        "o"
      ],
      [
        "i",
        "on"
      ],
      [
        "r",
        "o"
      ],
      [
        "l",
        "e"
      ],
      [
        "a",
        "s"
      ],
      [
        "Ġ",
        "h"
      ],
      [
        "Ġ",
        "T"
      ],
      [
        "o",
        "m"
      ],
      [
        "u",
        "s"
      ],
      [
        "Ġ",
        "l"
      ],
      [
        "i",
        "l"
      ],
      [
        "Ġ",
        "A"
      ],
      [
        "c",
        "t"
      ],
      [
        "en",
        "t"
      ],
      [
        "Ġ",
        "n"
      ],
      [
        "Ġt",
        "h"
      ],
      [
        "e",
        "t"
      ],
      [
        "Ġ",
        "C"
      ],
      [
        "e",
        "l"
      ],
      [
        "s",
        "t"
      ],
      [
        "Ġ",
        "S"
      ],
      [
        "Ġ",
        "re"
      ],
      [
        "Ġ",
        "e"
      ],
      [
        "Ġ",
        "y"
      ],
      [
        "o",
        "w"
      ],
      [
        "o",
        "l"
      ],
      [
        "Ġ",
        "g"
      ],
      [
        "Ġf",
        "or"
      ],
      [
        "i",
        "d"
      ],
      [
        "a",
        "m"
      ],
      [
        "o",
        "t"
      ],
      [
        "u",
        "r"
      ],
      [
        "ĠT",
        "he"
      ],
      [
        "v",
        "e"
      ],
      [
        "Ġ",
        "I"
      ],
      [
        "l",
        "y"
      ],
      [
        "Ġ",
        "1"
      ],
      [
        "v",
        "er"
      ],
      [
        "at",
        "ion"
      ],
      [
        "i",
        "g"
      ],
      [
        "Ġy",
        "ou"
      ],
      [
        "Ġo",
        "r"
      ],
      [
        "i",
        "m"
      ],
      [
        "Ġ",
        "on"
      ],
      [
        "a",
        "y"
      ],
      [
        "c",
        "h"
      ],
      [
        "Ġw",
        "h"
      ],
      [
        "u",
        "t"
      ],
      [
        "Ġ",
        "M"
      ],
      [
        "c",
        "e"
      ],
      [
        "Ġb",
        "e"
      ],
      [
        "r",
        "a"
      ],
      [
        "Ġ",
        "("
      ],
      [
        "g",
        "e"
      ],
      [
        "Ġa",
        "re"
      ],
      [
        "u",
        "l"
      ],
      [
        "Ġ",
        "P"
      ],
      [
        "Ġs",
        "t"
      ],
      [
        "o",
        "d"
      ],
      [
        "u",
        "n"
      ],
      [
        "Ġ",
        "W"
      ],
      [
        "Ġ",
        "B"
      ],
      [
        "Ġ",
        "D"
      ],
      [
        "i",
        "r"
      ],
      [
        "u",
        "m"
      ],
      [
        "Ġ",
        "2"
      ],
      [
        "ou",
        "n"
      ],
      [
        "Ġ",
        "H"
      ],
      [
        "Ġth",
        "at"
      ],
      [
        "Ġa",
        "s"
      ],
      [
        "t",
        "er"
      ],
      [
        "o",
        "s"
      ],
      [
        "it",
        "h"
      ],
      [
        "Ġ",
        "F"
      ],
      [
        "he",
        "r"
      ],
      [
        "t",
        "h"
      ],
      [
        "Ġc",
        "on"
      ],
      [
        "a",
        "d"
      ],
      [
        "es",
        "t"
      ],
      [
        "Ġ",
        "it"
      ],
      [
        "Ġp",
        "ro"
      ],
      [
        "e",
        "m"
      ],
      [
        "i",
        "f"
      ],
      [
        "Ġw",
        "ith"
      ],
      [
        "0",
        "0"
      ],
      [
        "Ġ",
        "R"
      ],
      [
        "Ġd",
        "e"
      ],
      [
        "at",
        "e"
      ],
      [
        "ro",
        "m"
      ],
      [
        "o",
        "p"
      ],
      [
        "Ġa",
        "l"
      ],
      [
        "er",
        "s"
      ],
      [
        "Ġ",
        "E"
      ],
      [
        "Ġ",
        "v"
      ],
      [
        "Ã",
        "¢"
      ],
      [
        "Â",
        "Ģ"
      ],
      [
        "o",
        "st"
      ],
      [
        "Ġ",
        "r"
      ],
      [
        "a",
        "b"
      ],
      [
        "Ġc",
        "an"
      ],
      [
        "a",
        "k"
      ],
      [
        "ÂĢ",
        "Â"
      ],
      [
        "il",
        "l"
      ],
      [
        "Ġ",
        "N"
      ],
      [
        "Ġc",
        "om"
      ],
      [
        "Ġ",
        "L"
      ],
      [
        "es",
        "s"
      ],
      [
        "Ġf",
        "rom"
      ],
      [
        "is",
        "t"
      ],
      [
        "re",
        "s"
      ],
      [
        "Ġ",
        "us"
      ],
      [
        "Ġb",
        "y"
      ],
      [
        "a",
        "c"
      ],
      [
        "i",
        "es"
      ],
      [
        "o",
        "c"
      ],
      [
        "q",
        "u"
      ],
      [
        "an",
        "d"
      ],
      [
        "ig",
        "h"
      ],
      [
        "a",
        "ge"
      ],
      [
        "o",
        "re"
      ],
      [
        "al",
        "l"
      ],
      [
        "Ġ",
        "G"
      ],
      [
        "it",
        "y"
      ],
      [
        "p",
        "p"
      ],
      [
        "Ġa",
        "t"
      ],
      [
        "Ġ",
        "he"
      ],
      [
        "Ġd",
        "o"
      ],
      [
        "a",
        "in"
      ],
      [
        "e",
        "ar"
      ],
      [
        "e",
        "ct"
      ],
      [
        "Ġyou",
        "r"
      ],
      [
        "r",
        "i"
      ],
      [
        "Ġe",
        "x"
      ],
      [
        "m",
        "ent"
      ],
      [
        "Ġc",
        "h"
      ],
      [
        "an",
        "t"
      ],
      [
        "Ġ",
        "O"
      ],
      [
        "i",
        "ve"
      ],
      [
        "as",
        "t"
      ],
      [
        "u",
        "re"
      ],
      [
        "Ġ",
        "k"
      ],
      [
        "in",
        "e"
      ],
      [
        "Ġs",
        "e"
      ],
      [
        "Ġ",
        "U"
      ],
      [
        "or",
        "t"
      ],
      [
        "s",
        "e"
      ],
      [
        "ar",
        "t"
      ],
      [
        "i",
        "a"
      ],
      [
        "en",
        "d"
      ],
      [
        "Ġwh",
        "at"
      ],
      [
        "l",
        "d"
      ],
      [
        "al",
        "ly"
      ],
      [
        "at",
        "ed"
      ],
      [
        "Ġs",
        "h"
      ],
      [
        "Ġs",
        "u"
      ],
      [
        "ar",
        "y"
      ],
      [
        "Ġh",
        "a"
      ],
      [
        "ĠI",
        "n"
      ],
      [
        "o",
        "od"
      ],
      [
        "i",
        "v"
      ],
      [
        "el",
        "l"
      ],
      [
        "p",
        "e"
      ],
      [
        "ic",
        "h"
      ],
      [
        "Ġw",
        "as"
      ],
      [
        "Ġ",
        "le"
      ],
      [
        "Ġ",
        "3"
      ],
      [
        "Ġp",
        "er"
      ],
      [
        "p",
        "t"
      ],
      [
        "om",
        "e"
      ],
      [
        "oun",
        "t"
      ],
      [
        "u",
        "d"
      ],
      [
        "Ġ",
        "$"
      ],
      [
        "Ġp",
        "l"
      ],
      [
        "it",
        "ion"
      ],
      [
        "igh",
        "t"
      ],
      [
        "ou",
        "r"
      ],
      [
        "'",
        "s"
      ],
      [
        "p",
        "er"
      ],
      [
        "Ġm",
        "e"
      ],
      [
        "a",
        "us"
      ],
      [
        "ou",
        "t"
      ],
      [
        "Ġa",
        "b"
      ],
      [
        "on",
        "g"
      ],
      [
        "a",
        "ct"
      ],
      [
        "oun",
        "d"
      ],
      [
        "ar",
        "d"
      ],
      [
        "Ġw",
        "he"
      ],
      [
        "Ġ",
        "un"
      ],
      [
        "Ġn",
        "e"
      ],
      [
        "or",
        "d"
      ],
      [
        "an",
        "s"
      ],
      [
        "Ġin",
        "c"
      ],
      [
        "ĠS",
        "t"
      ],
      [
        "am",
        "e"
      ],
      [
        "a",
        "re"
      ],
      [
        "b",
        "er"
      ],
      [
        "us",
        "t"
      ],
      [
        "ic",
        "e"
      ],
      [
        "Ġw",
        "e"
      ],
      [
        "o",
        "g"
      ],
      [
        "d",
        "u"
      ],
      [
        "id",
        "e"
      ],
      [
        "c",
        "c"
      ],
      [
        "ic",
        "al"
      ],
      [
        "Ġn",
        "ot"
      ],
      [
        "a",
        "g"
      ],
      [
        "Ġwh",
        "ich"
      ],
      [
        "Ġha",
        "ve"
      ],
      [
        "or",
        "m"
      ],
      [
        "i",
        "p"
      ],
      [
        "i",
        "al"
      ],
      [
        "Ġ",
        "J"
      ],
      [
        ".",
        "."
      ],
      [
        "Ġcom",
        "p"
      ],
      [
        "f",
        "f"
      ],
      [
        "on",
        "e"
      ],
      [
        "Ġs",
        "y"
      ],
      [
        "ak",
        "e"
      ],
      [
        "i",
        "z"
      ],
      [
        "t",
        "her"
      ],
      [
        "Ġh",
        "ow"
      ],
      [
        "Ġa",
        "d"
      ],
      [
        "Ġcon",
        "t"
      ],
      [
        "i",
        "re"
      ],
      [
        "Ġ",
        "4"
      ],
      [
        "u",
        "p"
      ],
      [
        "g",
        "h"
      ],
      [
        "as",
        "e"
      ],
      [
        "Ġw",
        "ill"
      ],
      [
        "at",
        "es"
      ],
      [
        "s",
        "o"
      ],
      [
        "ou",
        "s"
      ],
      [
        "p",
        "l"
      ],
      [
        "as",
        "s"
      ],
      [
        "Ġy",
        "ear"
      ],
      [
        "Ġc",
        "l"
      ],
      [
        "en",
        "s"
      ],
      [
        "ĠI",
        "t"
      ],
      [
        "r",
        "u"
      ],
      [
        "ĠW",
        "h"
      ],
      [
        "k",
        "s"
      ],
      [
        "Ġth",
        "is"
      ],
      [
        "re",
        "e"
      ],
      [
        ")",
        "."
      ],
      [
        "Ġh",
        "as"
      ],
      [
        "Ġ",
        "j"
      ],
      [
        "ou",
        "gh"
      ],
      [
        "Ġd",
        "is"
      ],
      [
        "Ġ2",
        "0"
      ],
      [
        "an",
        "y"
      ],
      [
        "Ġon",
        "e"
      ],
      [
        "e",
        "f"
      ],
      [
        "ĠT",
        "h"
      ],
      [
        "e",
        "p"
      ],
      [
        "e",
        "w"
      ],
      [
        "Ġdo",
        "es"
      ],
      [
        "ou",
        "ld"
      ],
      [
        "d",
        "er"
      ],
      [
        "ĠA",
        "n"
      ],
      [
        "r",
        "y"
      ],
      [
        "Ġ",
        "Ã¢"
      ],
      [
        "ct",
        "ion"
      ],
      [
        "Ġ",
        "V"
      ],
      [
        "er",
        "m"
      ],
      [
        "f",
        "er"
      ],
      [
        "Ġw",
        "or"
      ],
      [
        "a",
        "p"
      ],
      [
        "im",
        "e"
      ],
      [
        "an",
        "ce"
      ],
      [
        "Ġb",
        "l"
      ],
      [
        "Ġal",
        "l"
      ],
      [
        "ow",
        "n"
      ],
      [
        "Ġm",
        "ore"
      ],
      [
        "u",
        "e"
      ],
      [
        "Ġ",
        "5"
      ],
      [
        "Ġa",
        "pp"
      ],
      [
        "Ġ",
        "en"
      ],
      [
        "Ġin",
        "t"
      ],
      [
        "ÂĢÂ",
        "Ļ"
      ],
      [
        "i",
        "b"
      ],
      [
        "Ġc",
        "aus"
      ],
      [
        "Ġs",
        "p"
      ],
      [
        "Ġre",
        "s"
      ],
      [
        "o",
        "k"
      ],
      [
        "Ġ",
        "Y"
      ],
      [
        "Ġa",
        "r"
      ],
      [
        "Ġal",
        "so"
      ],
      [
        "ver",
        "age"
      ],
      [
        "ul",
        "t"
      ],
      [
        "at",
        "er"
      ],
      [
        "Ġ",
        "ro"
      ],
      [
        "Ġo",
        "ther"
      ],
      [
        "in",
        "d"
      ],
      [
        "en",
        "ce"
      ],
      [
        "m",
        "er"
      ],
      [
        "i",
        "k"
      ],
      [
        "ic",
        "k"
      ],
      [
        "Ġ",
        "K"
      ],
      [
        "ab",
        "le"
      ],
      [
        "Ġd",
        "ay"
      ],
      [
        "a",
        "ch"
      ],
      [
        "Ġus",
        "ed"
      ],
      [
        "i",
        "le"
      ],
      [
        "os",
        "e"
      ],
      [
        "re",
        "at"
      ],
      [
        "er",
        "v"
      ],
      [
        "Ġ1",
        "9"
      ],
      [
        "u",
        "b"
      ],
      [
        "Ġwhe",
        "n"
      ],
      [
        "v",
        "el"
      ],
      [
        "a",
        "il"
      ],
      [
        "re",
        "n"
      ],
      [
        "Ġf",
        "l"
      ],
      [
        "Ġb",
        "ut"
      ],
      [
        "Ġ",
        "up"
      ],
      [
        "w",
        "e"
      ],
      [
        "is",
        "h"
      ],
      [
        "Ġt",
        "y"
      ],
      [
        "Ġab",
        "out"
      ],
      [
        "Ġc",
        "o"
      ],
      [
        "ac",
        "k"
      ],
      [
        "it",
        "e"
      ],
      [
        "l",
        "ud"
      ],
      [
        "Ġ",
        "-"
      ],
      [
        "Ġc",
        "ost"
      ],
      [
        "Ġ20",
        "1"
      ],
      [
        "ĠWh",
        "at"
      ],
      [
        "i",
        "an"
      ],
      [
        "Ġm",
        "ost"
      ],
      [
        "Ġp",
        "h"
      ],
      [
        "Ġl",
        "ong"
      ],
      [
        "p",
        "h"
      ],
      [
        "ion",
        "s"
      ],
      [
        "r",
        "ic"
      ],
      [
        "Ġp",
        "re"
      ],
      [
        "Ġk",
        "n"
      ],
      [
        "l",
        "l"
      ],
      [
        "a",
        "v"
      ],
      [
        "o",
        "b"
      ],
      [
        "ĠH",
        "ow"
      ],
      [
        "Ġth",
        "an"
      ],
      [
        "ĠU",
        "n"
      ],
      [
        "Ġin",
        "f"
      ],
      [
        "Ġ",
        "im"
      ],
      [
        "Ġ",
        "6"
      ],
      [
        "Ġa",
        "verage"
      ],
      [
        "an",
        "g"
      ],
      [
        "on",
        "d"
      ],
      [
        "res",
        "s"
      ],
      [
        "a",
        "x"
      ],
      [
        "Ġm",
        "ay"
      ],
      [
        "Ġp",
        "e"
      ],
      [
        "Ġinc",
        "lud"
      ],
      [
        "a",
        "ce"
      ],
      [
        "Ġs",
        "al"
      ],
      [
        "l",
        "es"
      ],
      [
        "Ġwh",
        "o"
      ],
      [
        "00",
        "0"
      ],
      [
        "Ġde",
        "f"
      ],
      [
        "ent",
        "s"
      ],
      [
        "c",
        "k"
      ],
      [
        "Ġc",
        "ol"
      ],
      [
        "ig",
        "n"
      ],
      [
        "Ġn",
        "ame"
      ],
      [
        "ro",
        "w"
      ],
      [
        "ation",
        "s"
      ],
      [
        "ir",
        "st"
      ],
      [
        "Ġb",
        "et"
      ],
      [
        "Ġg",
        "r"
      ],
      [
        "Ġf",
        "e"
      ],
      [
        "Ġp",
        "art"
      ],
      [
        "Ġt",
        "e"
      ],
      [
        "ĠC",
        "h"
      ],
      [
        "t",
        "e"
      ],
      [
        "Ġn",
        "um"
      ],
      [
        "el",
        "y"
      ],
      [
        "Ġo",
        "ut"
      ],
      [
        "Ġl",
        "oc"
      ],
      [
        "il",
        "d"
      ],
      [
        "ver",
        "y"
      ],
      [
        "ĠTh",
        "is"
      ],
      [
        "p",
        "ort"
      ],
      [
        "Ġt",
        "ra"
      ],
      [
        "or",
        "s"
      ],
      [
        "n",
        "e"
      ],
      [
        "Ġs",
        "o"
      ],
      [
        "Ġa",
        "c"
      ],
      [
        "or",
        "y"
      ],
      [
        "in",
        "ition"
      ],
      [
        "Ġit",
        "s"
      ],
      [
        "st",
        "em"
      ],
      [
        "i",
        "e"
      ],
      [
        "u",
        "ch"
      ],
      [
        "an",
        "c"
      ],
      [
        "Ġc",
        "all"
      ],
      [
        "pe",
        "c"
      ],
      [
        "Ġfor",
        "m"
      ],
      [
        "ul",
        "ar"
      ],
      [
        "Ġme",
        "an"
      ],
      [
        "Ġcom",
        "m"
      ],
      [
        "Ġthe",
        "y"
      ],
      [
        "on",
        "s"
      ],
      [
        "Ã",
        "Ĥ"
      ],
      [
        "Ġf",
        "irst"
      ],
      [
        "Ġt",
        "w"
      ],
      [
        "in",
        "t"
      ],
      [
        "ol",
        "l"
      ],
      [
        "Ġpro",
        "du"
      ],
      [
        "op",
        "le"
      ],
      [
        "it",
        "ed"
      ],
      [
        "Ġt",
        "ime"
      ],
      [
        "Ġs",
        "ome"
      ],
      [
        "we",
        "en"
      ],
      [
        "Ġ",
        "qu"
      ],
      [
        "he",
        "n"
      ],
      [
        "Ġs",
        "c"
      ],
      [
        "Ġint",
        "o"
      ],
      [
        "an",
        "ge"
      ],
      [
        "ount",
        "y"
      ],
      [
        "u",
        "al"
      ],
      [
        "c",
        "ess"
      ],
      [
        "Ġm",
        "ed"
      ],
      [
        "Ġa",
        "m"
      ],
      [
        "Ġa",
        "cc"
      ],
      [
        "it",
        "s"
      ],
      [
        "Ġp",
        "r"
      ],
      [
        "Ġthe",
        "ir"
      ],
      [
        ")",
        ","
      ],
      [
        "ik",
        "e"
      ],
      [
        "Ġbet",
        "ween"
      ],
      [
        "ĠR",
        "e"
      ],
      [
        "le",
        "ct"
      ],
      [
        "Ġm",
        "o"
      ],
      [
        "Ġo",
        "ver"
      ],
      [
        "ter",
        "n"
      ],
      [
        "Ġbe",
        "c"
      ],
      [
        "y",
        "s"
      ],
      [
        "Ġm",
        "any"
      ],
      [
        "Ġa",
        "g"
      ],
      [
        "Ġd",
        "if"
      ],
      [
        "Ġg",
        "en"
      ],
      [
        "d",
        "ition"
      ],
      [
        "r",
        "am"
      ],
      [
        "Ġ",
        "if"
      ],
      [
        "re",
        "d"
      ],
      [
        "Ġ",
        "ra"
      ],
      [
        "or",
        "n"
      ],
      [
        "ing",
        "s"
      ],
      [
        "Ġm",
        "on"
      ],
      [
        "ol",
        "og"
      ],
      [
        "Ġg",
        "o"
      ],
      [
        "ur",
        "n"
      ],
      [
        "Ġyear",
        "s"
      ],
      [
        "u",
        "ally"
      ],
      [
        "ĠI",
        "f"
      ],
      [
        "Ġpe",
        "ople"
      ],
      [
        "Ġm",
        "uch"
      ],
      [
        "f",
        "ter"
      ],
      [
        "i",
        "ver"
      ],
      [
        "l",
        "and"
      ],
      [
        "in",
        "s"
      ],
      [
        "Ġc",
        "he"
      ],
      [
        "at",
        "ing"
      ],
      [
        "Ġ",
        "8"
      ],
      [
        "v",
        "en"
      ],
      [
        "Ġg",
        "et"
      ],
      [
        "a",
        "w"
      ],
      [
        "at",
        "her"
      ],
      [
        "if",
        "ic"
      ],
      [
        "is",
        "s"
      ],
      [
        "Ġcon",
        "s"
      ],
      [
        "ff",
        "ect"
      ],
      [
        "Ġtw",
        "o"
      ],
      [
        "ad",
        "e"
      ],
      [
        "Ġsy",
        "stem"
      ],
      [
        "Ġnum",
        "ber"
      ],
      [
        "Ġs",
        "m"
      ],
      [
        "ar",
        "k"
      ],
      [
        "mer",
        "ic"
      ],
      [
        "Ġof",
        "f"
      ],
      [
        "od",
        "y"
      ],
      [
        "he",
        "s"
      ],
      [
        "at",
        "ure"
      ],
      [
        "ol",
        "d"
      ],
      [
        "u",
        "c"
      ],
      [
        "en",
        "c"
      ],
      [
        "Ġbl",
        "ood"
      ],
      [
        "t",
        "en"
      ],
      [
        "r",
        "it"
      ],
      [
        "Ġm",
        "in"
      ],
      [
        "Ġa",
        "ct"
      ],
      [
        "Ġc",
        "ar"
      ],
      [
        "Ġne",
        "ed"
      ],
      [
        "p",
        "le"
      ],
      [
        "Ġc",
        "ell"
      ],
      [
        "al",
        "s"
      ],
      [
        "Ġh",
        "our"
      ],
      [
        "er",
        "e"
      ],
      [
        "ow",
        "er"
      ],
      [
        "Ġre",
        "c"
      ],
      [
        "ic",
        "s"
      ],
      [
        "ar",
        "g"
      ],
      [
        "Ġp",
        "op"
      ],
      [
        "Ġt",
        "r"
      ],
      [
        "Ġan",
        "y"
      ],
      [
        "Ġsh",
        "ould"
      ],
      [
        "Ġcall",
        "ed"
      ],
      [
        "Ġ1",
        "0"
      ],
      [
        "Ġin",
        "d"
      ],
      [
        "i",
        "um"
      ],
      [
        "l",
        "ic"
      ],
      [
        "Ġ",
        "7"
      ],
      [
        "er",
        "t"
      ],
      [
        "ot",
        "h"
      ],
      [
        "Ġt",
        "em"
      ],
      [
        "Ġe",
        "ar"
      ],
      [
        "Ġd",
        "es"
      ],
      [
        "ĠC",
        "on"
      ],
      [
        "Ġus",
        "e"
      ],
      [
        "Ġty",
        "p"
      ],
      [
        "o",
        "ok"
      ],
      [
        "ĠA",
        "meric"
      ],
      [
        "ĠS",
        "e"
      ],
      [
        "y",
        "m"
      ],
      [
        "ĠA",
        "s"
      ],
      [
        "i",
        "x"
      ],
      [
        "r",
        "ough"
      ],
      [
        "o",
        "y"
      ],
      [
        "Ġwhe",
        "re"
      ],
      [
        "ur",
        "ing"
      ],
      [
        "Ġde",
        "p"
      ],
      [
        "aus",
        "e"
      ],
      [
        "Ġthe",
        "re"
      ],
      [
        "et",
        "h"
      ],
      [
        "Ġwor",
        "k"
      ],
      [
        "Ġsu",
        "b"
      ],
      [
        "Ġre",
        "l"
      ],
      [
        "Ġdif",
        "fer"
      ],
      [
        "ĠE",
        "n"
      ],
      [
        "Ġsu",
        "ch"
      ],
      [
        "Ġre",
        "g"
      ],
      [
        "Ġs",
        "pec"
      ],
      [
        "ul",
        "ation"
      ],
      [
        "t",
        "s"
      ],
      [
        "Ġf",
        "ood"
      ],
      [
        "Ġw",
        "ater"
      ],
      [
        "ar",
        "i"
      ],
      [
        "ment",
        "s"
      ],
      [
        "Ġa",
        "fter"
      ],
      [
        "Ġun",
        "der"
      ],
      [
        "as",
        "ed"
      ],
      [
        "g",
        "an"
      ],
      [
        "ĠA",
        "l"
      ],
      [
        "Ġtem",
        "per"
      ],
      [
        "Ġb",
        "ody"
      ],
      [
        "Ġas",
        "s"
      ],
      [
        "Ġmon",
        "th"
      ],
      [
        "al",
        "th"
      ],
      [
        "Ġth",
        "rough"
      ],
      [
        "ĠH",
        "e"
      ],
      [
        "Ġt",
        "erm"
      ],
      [
        "Ġf",
        "ound"
      ],
      [
        "act",
        "er"
      ],
      [
        "ĠUn",
        "ited"
      ],
      [
        "Ġre",
        "qu"
      ],
      [
        "Ġe",
        "m"
      ],
      [
        "in",
        "k"
      ],
      [
        "ĠC",
        "ounty"
      ],
      [
        "ri",
        "b"
      ],
      [
        "Ġt",
        "ake"
      ],
      [
        "Ġn",
        "o"
      ],
      [
        "oc",
        "k"
      ],
      [
        "Ġh",
        "igh"
      ],
      [
        "ers",
        "on"
      ],
      [
        "u",
        "res"
      ],
      [
        "Ġin",
        "s"
      ],
      [
        "Ġl",
        "ike"
      ],
      [
        "ay",
        "s"
      ],
      [
        "Ġkn",
        "own"
      ],
      [
        "Ġcomm",
        "on"
      ],
      [
        "Ġm",
        "ake"
      ],
      [
        "Ġd",
        "i"
      ],
      [
        "om",
        "s"
      ],
      [
        "Ġp",
        "o"
      ],
      [
        "Ġon",
        "ly"
      ],
      [
        "f",
        "t"
      ],
      [
        "Ġs",
        "erv"
      ],
      [
        "w",
        "n"
      ],
      [
        "Ġhe",
        "l"
      ],
      [
        "ĠW",
        "e"
      ],
      [
        "er",
        "al"
      ],
      [
        "ĠThe",
        "re"
      ],
      [
        "ÂĢÂ",
        "ĵ"
      ],
      [
        "r",
        "on"
      ],
      [
        "..",
        "."
      ],
      [
        "Ġse",
        "c"
      ],
      [
        "Ġne",
        "w"
      ],
      [
        "Ġbe",
        "en"
      ],
      [
        "Ġex",
        "p"
      ],
      [
        "is",
        "e"
      ],
      [
        "is",
        "m"
      ],
      [
        "Ġs",
        "k"
      ],
      [
        "il",
        "y"
      ],
      [
        "ĠY",
        "ou"
      ],
      [
        "ic",
        "ally"
      ],
      [
        "os",
        "s"
      ],
      [
        "ĠSt",
        "ates"
      ],
      [
        "Ġsy",
        "m"
      ],
      [
        "or",
        "k"
      ],
      [
        "Ġday",
        "s"
      ],
      [
        "v",
        "i"
      ],
      [
        "Ġh",
        "is"
      ],
      [
        "Ġm",
        "us"
      ],
      [
        "j",
        "ect"
      ],
      [
        "Ġs",
        "ur"
      ],
      [
        "ation",
        "al"
      ],
      [
        "Ġpro",
        "v"
      ],
      [
        "Ġhel",
        "p"
      ],
      [
        "o",
        "ol"
      ],
      [
        "o",
        "ve"
      ],
      [
        "e",
        "x"
      ],
      [
        "Ġm",
        "ade"
      ],
      [
        "c",
        "o"
      ],
      [
        "c",
        "ent"
      ],
      [
        "g",
        "s"
      ],
      [
        "5",
        "0"
      ],
      [
        "Ġc",
        "al"
      ],
      [
        "Ġcaus",
        "e"
      ],
      [
        "Ġb",
        "u"
      ],
      [
        "Ġ1",
        "8"
      ],
      [
        "Ġdef",
        "inition"
      ],
      [
        "t",
        "y"
      ],
      [
        "ow",
        "s"
      ],
      [
        "Ġm",
        "il"
      ],
      [
        "ĠF",
        "or"
      ],
      [
        "Ġin",
        "ter"
      ],
      [
        "ĠN",
        "ew"
      ],
      [
        "Ġ",
        "9"
      ],
      [
        "ĠC",
        "om"
      ],
      [
        "im",
        "es"
      ],
      [
        "c",
        "ed"
      ],
      [
        "ic",
        "t"
      ],
      [
        "ĠC",
        "l"
      ],
      [
        "Ġp",
        "res"
      ],
      [
        "ut",
        "ion"
      ],
      [
        "pt",
        "ion"
      ],
      [
        "il",
        "ity"
      ],
      [
        "as",
        "h"
      ],
      [
        "f",
        "ore"
      ],
      [
        "in",
        "al"
      ],
      [
        "Ġloc",
        "ated"
      ],
      [
        "he",
        "d"
      ],
      [
        "i",
        "ent"
      ],
      [
        "at",
        "h"
      ],
      [
        "ra",
        "ct"
      ],
      [
        "ant",
        "s"
      ],
      [
        "er",
        "g"
      ],
      [
        "Ġb",
        "el"
      ],
      [
        "f",
        "orm"
      ],
      [
        "Ġpro",
        "cess"
      ],
      [
        "ul",
        "l"
      ],
      [
        "Ġt",
        "est"
      ],
      [
        "Ġwe",
        "e"
      ],
      [
        "i",
        "o"
      ],
      [
        "Ġthe",
        "n"
      ],
      [
        "it",
        "ies"
      ],
      [
        "y",
        "d"
      ],
      [
        "ĠP",
        "ro"
      ],
      [
        "Ġst",
        "ate"
      ],
      [
        "ou",
        "th"
      ],
      [
        "ĠD",
        "ef"
      ],
      [
        "Ġo",
        "cc"
      ],
      [
        "Ġthe",
        "m"
      ],
      [
        "Ġp",
        "erson"
      ],
      [
        "Ġt",
        "ax"
      ],
      [
        "Ġp",
        "ain"
      ],
      [
        "ĠA",
        "t"
      ],
      [
        "y",
        "l"
      ],
      [
        "in",
        "es"
      ],
      [
        "t",
        "al"
      ],
      [
        "ar",
        "m"
      ],
      [
        "t",
        "on"
      ],
      [
        "iz",
        "e"
      ],
      [
        "v",
        "ent"
      ],
      [
        "Ġm",
        "et"
      ],
      [
        "Ġt",
        "reat"
      ],
      [
        "ĠU",
        "S"
      ],
      [
        "n",
        "ess"
      ],
      [
        "ĠS",
        "h"
      ],
      [
        "ak",
        "es"
      ],
      [
        "Ġf",
        "un"
      ],
      [
        "Ġp",
        "ay"
      ],
      [
        "Ġsm",
        "all"
      ],
      [
        "b",
        "le"
      ],
      [
        "ĠA",
        "d"
      ],
      [
        "id",
        "ent"
      ],
      [
        "pt",
        "oms"
      ],
      [
        "Ġcaus",
        "es"
      ],
      [
        "b",
        "s"
      ],
      [
        "at",
        "ive"
      ],
      [
        "ou",
        "p"
      ],
      [
        "Ġst",
        "art"
      ],
      [
        "c",
        "l"
      ],
      [
        "c",
        "om"
      ],
      [
        "ĠA",
        "r"
      ],
      [
        "Ġof",
        "ten"
      ],
      [
        "Ġin",
        "st"
      ],
      [
        "Ġch",
        "ar"
      ],
      [
        "e",
        "e"
      ],
      [
        "Ġtr",
        "ans"
      ],
      [
        "i",
        "ed"
      ],
      [
        "Ġc",
        "ur"
      ],
      [
        "Ġty",
        "pe"
      ],
      [
        "c",
        "es"
      ],
      [
        "Ġs",
        "im"
      ],
      [
        "or",
        "th"
      ],
      [
        "Ġde",
        "g"
      ],
      [
        "Ġus",
        "ually"
      ],
      [
        "Ġtemper",
        "ature"
      ],
      [
        "c",
        "le"
      ],
      [
        "e",
        "ver"
      ],
      [
        "g",
        "l"
      ],
      [
        "Ġd",
        "uring"
      ],
      [
        "Ġch",
        "ild"
      ],
      [
        "Ġw",
        "ere"
      ],
      [
        "Ġm",
        "y"
      ],
      [
        "a",
        "ir"
      ],
      [
        "Ġm",
        "an"
      ],
      [
        "Ġdis",
        "e"
      ],
      [
        "Ġmean",
        "ing"
      ],
      [
        "Ġor",
        "gan"
      ],
      [
        "ak",
        "ing"
      ],
      [
        "an",
        "k"
      ],
      [
        "Ġw",
        "ord"
      ],
      [
        "Ġw",
        "ould"
      ],
      [
        "Ġhour",
        "s"
      ],
      [
        "ic",
        "es"
      ],
      [
        "Ġinclud",
        "e"
      ],
      [
        "p",
        "r"
      ],
      [
        "s",
        "w"
      ],
      [
        "ro",
        "s"
      ],
      [
        "Ġad",
        "d"
      ],
      [
        "ra",
        "in"
      ],
      [
        "ib",
        "le"
      ],
      [
        "Ġar",
        "ound"
      ],
      [
        "ag",
        "es"
      ],
      [
        "Ġ",
        "very"
      ],
      [
        "ar",
        "s"
      ],
      [
        "Ġcont",
        "ain"
      ],
      [
        "as",
        "es"
      ],
      [
        "Ġth",
        "ree"
      ],
      [
        "Ġre",
        "t"
      ],
      [
        "o",
        "x"
      ],
      [
        "Ġe",
        "ach"
      ],
      [
        "ĠAmeric",
        "an"
      ],
      [
        "Ġ",
        "ent"
      ],
      [
        "t",
        "ing"
      ],
      [
        "Ġa",
        "ge"
      ],
      [
        "Ġg",
        "row"
      ],
      [
        "Ġm",
        "od"
      ],
      [
        "Ġc",
        "ity"
      ],
      [
        "ot",
        "her"
      ],
      [
        "ch",
        "ool"
      ],
      [
        "ut",
        "e"
      ],
      [
        "Ġare",
        "a"
      ],
      [
        "Ġex",
        "t"
      ],
      [
        "Ġw",
        "ell"
      ],
      [
        "Ġ",
        "0"
      ],
      [
        "Ġre",
        "f"
      ],
      [
        "ĠE",
        "x"
      ],
      [
        "Ġv",
        "ari"
      ],
      [
        "Ġsal",
        "ary"
      ],
      [
        "Ġpop",
        "ulation"
      ],
      [
        "Ġbe",
        "fore"
      ],
      [
        "Ġinf",
        "orm"
      ],
      [
        "t",
        "ic"
      ],
      [
        "el",
        "s"
      ],
      [
        "id",
        "er"
      ],
      [
        "Ġthe",
        "se"
      ],
      [
        "Ġsu",
        "pp"
      ],
      [
        "olog",
        "y"
      ],
      [
        "Ġs",
        "et"
      ],
      [
        "id",
        "es"
      ],
      [
        "Ġapp",
        "ro"
      ],
      [
        "Ġdep",
        "end"
      ],
      [
        "Ġdiffer",
        "ent"
      ],
      [
        "Ġk",
        "e"
      ],
      [
        "v",
        "ing"
      ],
      [
        "Ġ1",
        "2"
      ],
      [
        "Ġst",
        "ud"
      ],
      [
        "a",
        "h"
      ],
      [
        "in",
        "ess"
      ],
      [
        "Ġ",
        "&"
      ],
      [
        "Ġcon",
        "dition"
      ],
      [
        "Ġj",
        "ust"
      ],
      [
        "Ġbec",
        "ause"
      ],
      [
        "v",
        "ol"
      ],
      [
        "Ġa",
        "ut"
      ],
      [
        "ct",
        "or"
      ],
      [
        "Ġh",
        "ome"
      ],
      [
        "Ġocc",
        "ur"
      ],
      [
        "o",
        "ot"
      ],
      [
        "ect",
        "ion"
      ],
      [
        "1",
        "0"
      ],
      [
        "Ġs",
        "a"
      ],
      [
        "Ġs",
        "er"
      ],
      [
        "Ġd",
        "ist"
      ],
      [
        "Ġe",
        "ffect"
      ],
      [
        "Ġex",
        "am"
      ],
      [
        "ĠP",
        "l"
      ],
      [
        "vel",
        "op"
      ],
      [
        "al",
        "e"
      ],
      [
        "Ġre",
        "p"
      ],
      [
        "Ġg",
        "ood"
      ],
      [
        "ord",
        "ing"
      ],
      [
        "Ġf",
        "am"
      ],
      [
        "Ġat",
        "t"
      ],
      [
        "Ġb",
        "r"
      ],
      [
        "Ġl",
        "ast"
      ],
      [
        "if",
        "e"
      ],
      [
        "ren",
        "t"
      ],
      [
        "r",
        "al"
      ],
      [
        "Ġe",
        "lect"
      ],
      [
        "n",
        "ing"
      ],
      [
        "Ġre",
        "m"
      ],
      [
        "Ġle",
        "vel"
      ],
      [
        "Ġinform",
        "ation"
      ],
      [
        "v",
        "ed"
      ],
      [
        "Ġrequ",
        "ire"
      ],
      [
        "Ġs",
        "l"
      ],
      [
        "Ġb",
        "en"
      ],
      [
        "Ġd",
        "et"
      ],
      [
        "ĠW",
        "hen"
      ],
      [
        "ĠD",
        "e"
      ],
      [
        "Ġhe",
        "alth"
      ],
      [
        "Ġwor",
        "ld"
      ],
      [
        "oll",
        "ow"
      ],
      [
        "Ġh",
        "um"
      ],
      [
        "d",
        "ay"
      ],
      [
        "ÂĢÂ",
        "Ŀ"
      ],
      [
        "Ġo",
        "ur"
      ],
      [
        "Ġpl",
        "an"
      ],
      [
        "Ġme",
        "ans"
      ],
      [
        "Ġor",
        "ig"
      ],
      [
        "'",
        "t"
      ],
      [
        "Ġa",
        "ir"
      ],
      [
        "Ġs",
        "ign"
      ],
      [
        "ou",
        "se"
      ],
      [
        "i",
        "od"
      ],
      [
        "Ġg",
        "l"
      ],
      [
        "oc",
        "i"
      ],
      [
        "c",
        "er"
      ],
      [
        "h",
        "ip"
      ],
      [
        "Ġc",
        "ent"
      ],
      [
        "Ġv",
        "al"
      ],
      [
        "Ġ",
        "est"
      ],
      [
        "ÂĢÂ",
        "ľ"
      ],
      [
        "Ġper",
        "cent"
      ],
      [
        "Ġb",
        "re"
      ],
      [
        "Ġde",
        "c"
      ],
      [
        "ĠO",
        "n"
      ],
      [
        "_",
        "_"
      ],
      [
        "Ġp",
        "ol"
      ],
      [
        "ro",
        "p"
      ],
      [
        "om",
        "et"
      ],
      [
        "Ġse",
        "ver"
      ],
      [
        "Ġb",
        "ack"
      ],
      [
        "od",
        "e"
      ],
      [
        "ĠB",
        "e"
      ],
      [
        "ĠDef",
        "inition"
      ],
      [
        "Â",
        "°"
      ],
      [
        "Ġsym",
        "ptoms"
      ],
      [
        "b",
        "ers"
      ],
      [
        "t",
        "le"
      ],
      [
        "id",
        "s"
      ],
      [
        "Ġres",
        "ult"
      ],
      [
        "Ġinclud",
        "ing"
      ],
      [
        "Ġgr",
        "oup"
      ],
      [
        "Ġwh",
        "ile"
      ],
      [
        "pl",
        "oy"
      ],
      [
        "re",
        "es"
      ],
      [
        "Ġc",
        "ount"
      ],
      [
        "Ġm",
        "em"
      ],
      [
        "ur",
        "al"
      ],
      [
        "o",
        "h"
      ],
      [
        "t",
        "ed"
      ],
      [
        "Ġe",
        "very"
      ],
      [
        "Ġst",
        "and"
      ],
      [
        "Ġ2",
        "00"
      ],
      [
        "iz",
        "ed"
      ],
      [
        "w",
        "ard"
      ],
      [
        "Ġc",
        "re"
      ],
      [
        "Ġm",
        "ain"
      ],
      [
        "Ġto",
        "tal"
      ],
      [
        "enc",
        "y"
      ],
      [
        "Ġsec",
        "ond"
      ],
      [
        "Ġd",
        "id"
      ],
      [
        "ist",
        "s"
      ],
      [
        "Ġs",
        "ol"
      ],
      [
        "Ġr",
        "ate"
      ],
      [
        "Ġam",
        "ount"
      ],
      [
        "u",
        "es"
      ],
      [
        "Ġf",
        "il"
      ],
      [
        "Ġh",
        "ig"
      ],
      [
        "Ġcomp",
        "le"
      ],
      [
        "ĠP",
        "h"
      ],
      [
        "Ġo",
        "ld"
      ],
      [
        "ĠM",
        "e"
      ],
      [
        "Ġde",
        "velop"
      ],
      [
        "Ġkn",
        "ow"
      ],
      [
        "g",
        "en"
      ],
      [
        "Ġ1",
        "5"
      ],
      [
        "Ġf",
        "act"
      ],
      [
        "Ġsk",
        "in"
      ],
      [
        "t",
        "he"
      ],
      [
        "Ġ",
        "her"
      ],
      [
        "Ġ",
        "end"
      ],
      [
        "Ġse",
        "e"
      ],
      [
        "Ġres",
        "p"
      ],
      [
        "g",
        "et"
      ],
      [
        "Ġ",
        ":"
      ],
      [
        "at",
        "ely"
      ],
      [
        "Ġo",
        "b"
      ],
      [
        "Ġf",
        "ree"
      ],
      [
        "Ġcell",
        "s"
      ],
      [
        "2",
        "0"
      ],
      [
        "et",
        "y"
      ],
      [
        "he",
        "re"
      ],
      [
        "Ġb",
        "o"
      ],
      [
        "Ġs",
        "chool"
      ],
      [
        "Ġprodu",
        "ct"
      ],
      [
        "at",
        "a"
      ],
      [
        "Ġr",
        "ight"
      ],
      [
        "Ġben",
        "ef"
      ],
      [
        "ĠC",
        "al"
      ],
      [
        "in",
        "ed"
      ],
      [
        "Ġe",
        "qu"
      ],
      [
        "g",
        "er"
      ],
      [
        "as",
        "on"
      ],
      [
        "Ġl",
        "arg"
      ],
      [
        "sw",
        "er"
      ],
      [
        "iv",
        "id"
      ],
      [
        "N",
        "A"
      ],
      [
        "c",
        "ul"
      ],
      [
        "Ġan",
        "t"
      ],
      [
        "us",
        "iness"
      ],
      [
        "erg",
        "y"
      ],
      [
        "l",
        "ine"
      ],
      [
        "Ġp",
        "ass"
      ],
      [
        "gl",
        "ish"
      ],
      [
        "T",
        "he"
      ],
      [
        "u",
        "g"
      ],
      [
        "or",
        "ies"
      ],
      [
        "Ġbe",
        "ing"
      ],
      [
        "ter",
        "s"
      ],
      [
        "g",
        "ram"
      ],
      [
        "Ġ",
        "/"
      ],
      [
        "ĠB",
        "l"
      ],
      [
        "Ġs",
        "ame"
      ],
      [
        "Ġper",
        "iod"
      ],
      [
        "v",
        "es"
      ],
      [
        "Ġa",
        "v"
      ],
      [
        "Ġr",
        "ange"
      ],
      [
        "re",
        "en"
      ],
      [
        "ÂĢÂ",
        "Ķ"
      ],
      [
        "ill",
        "ion"
      ],
      [
        "Ġo",
        "wn"
      ],
      [
        "ĠS",
        "p"
      ],
      [
        "Ġh",
        "ad"
      ],
      [
        "ĠI",
        "s"
      ],
      [
        "Ġdise",
        "ase"
      ],
      [
        "ar",
        "ge"
      ],
      [
        "Ġl",
        "ess"
      ],
      [
        "ver",
        "s"
      ],
      [
        "Ġs",
        "ide"
      ],
      [
        "ar",
        "ies"
      ],
      [
        "Ġ",
        "."
      ],
      [
        "Ġ3",
        "0"
      ],
      [
        "Ġpl",
        "ay"
      ],
      [
        "Ġp",
        "ur"
      ],
      [
        "Ġd",
        "own"
      ],
      [
        "Ġus",
        "ing"
      ],
      [
        "Ġcomp",
        "any"
      ],
      [
        "Ġ",
        "i"
      ],
      [
        "ĠT",
        "o"
      ],
      [
        "ĠC",
        "ar"
      ],
      [
        "am",
        "s"
      ],
      [
        "Ġim",
        "port"
      ],
      [
        "f",
        "ul"
      ],
      [
        "p",
        "en"
      ],
      [
        "Ġb",
        "est"
      ],
      [
        "ÂĢÂ",
        "¦"
      ],
      [
        "it",
        "al"
      ],
      [
        "ro",
        "l"
      ],
      [
        "ut",
        "es"
      ],
      [
        "Ġp",
        "at"
      ],
      [
        "Ġwith",
        "in"
      ],
      [
        "Ġsu",
        "g"
      ],
      [
        "iv",
        "es"
      ],
      [
        "Ġcl",
        "ass"
      ],
      [
        "i",
        "ence"
      ],
      [
        "Ġ",
        "ve"
      ],
      [
        "on",
        "t"
      ],
      [
        "Ġf",
        "ind"
      ],
      [
        "Ġinc",
        "re"
      ],
      [
        "orm",
        "al"
      ],
      [
        "Ġtyp",
        "es"
      ],
      [
        "Ġm",
        "a"
      ],
      [
        "Ġl",
        "ist"
      ],
      [
        "ru",
        "ct"
      ],
      [
        "Ġb",
        "oth"
      ],
      [
        "Ġl",
        "ow"
      ],
      [
        "Ġg",
        "ra"
      ],
      [
        "ĠL",
        "e"
      ],
      [
        "Ġmed",
        "ic"
      ],
      [
        "a",
        "ve"
      ],
      [
        "l",
        "or"
      ],
      [
        "Ġ",
        "'"
      ],
      [
        "Ġr",
        "un"
      ],
      [
        "Ġfun",
        "ction"
      ],
      [
        "Ġle",
        "ad"
      ],
      [
        "in",
        "ce"
      ],
      [
        "ĠA",
        "cc"
      ],
      [
        "et",
        "s"
      ],
      [
        "Ġsy",
        "n"
      ],
      [
        "w",
        "ay"
      ],
      [
        "y",
        "n"
      ],
      [
        "ch",
        "n"
      ],
      [
        "at",
        "s"
      ],
      [
        "Ġs",
        "ing"
      ],
      [
        "Ġhe",
        "art"
      ],
      [
        "ĠM",
        "ed"
      ],
      [
        "Ġgen",
        "er"
      ],
      [
        "Ġv",
        "is"
      ],
      [
        "b",
        "r"
      ],
      [
        "Ġ",
        "Q"
      ],
      [
        "Ġ",
        "ÃĤ"
      ],
      [
        "el",
        "f"
      ],
      [
        "ub",
        "lic"
      ],
      [
        "Ġex",
        "per"
      ],
      [
        "m",
        "s"
      ],
      [
        "Ġc",
        "ert"
      ],
      [
        "el",
        "d"
      ],
      [
        "Ġre",
        "ce"
      ],
      [
        "ne",
        "y"
      ],
      [
        "Ġmil",
        "es"
      ],
      [
        "Ġs",
        "ize"
      ],
      [
        "it",
        "is"
      ],
      [
        "am",
        "in"
      ],
      [
        "Ġo",
        "il"
      ],
      [
        "Ġc",
        "are"
      ],
      [
        "ion",
        "al"
      ],
      [
        "at",
        "ter"
      ],
      [
        "en",
        "se"
      ],
      [
        "Ġ1",
        "6"
      ],
      [
        "j",
        "or"
      ],
      [
        "Ġf",
        "ollow"
      ],
      [
        "ab",
        "y"
      ],
      [
        "Ġcons",
        "ider"
      ],
      [
        "ĠEn",
        "glish"
      ],
      [
        "on",
        "es"
      ],
      [
        "Ġw",
        "om"
      ],
      [
        "ĠM",
        "ar"
      ],
      [
        "Ġme",
        "as"
      ],
      [
        "ens",
        "us"
      ],
      [
        "Ġj",
        "ob"
      ],
      [
        "Ġw",
        "ay"
      ],
      [
        "ĠC",
        "an"
      ],
      [
        "am",
        "p"
      ],
      [
        "Ġen",
        "ergy"
      ],
      [
        "iver",
        "s"
      ],
      [
        "c",
        "ri"
      ],
      [
        "k",
        "e"
      ],
      [
        "ver",
        "n"
      ],
      [
        "Ġpro",
        "te"
      ],
      [
        "ust",
        "om"
      ],
      [
        "un",
        "d"
      ],
      [
        "Ġwe",
        "ather"
      ],
      [
        "Ġe",
        "ven"
      ],
      [
        "ra",
        "p"
      ],
      [
        "i",
        "ous"
      ],
      [
        "Ġa",
        "ffect"
      ],
      [
        "Ġem",
        "ploy"
      ],
      [
        "Ġb",
        "usiness"
      ],
      [
        "ĠC",
        "ol"
      ],
      [
        "Ġs",
        "he"
      ],
      [
        "Ġm",
        "ust"
      ],
      [
        "Ġpo",
        "int"
      ],
      [
        "in",
        "c"
      ],
      [
        "Ġd",
        "ire"
      ],
      [
        "im",
        "um"
      ],
      [
        "Ġdes",
        "ign"
      ],
      [
        "Ġs",
        "w"
      ],
      [
        "Ġb",
        "ased"
      ],
      [
        "ĠN",
        "orth"
      ],
      [
        "Ġfe",
        "et"
      ],
      [
        "Ġm",
        "en"
      ],
      [
        "et",
        "er"
      ],
      [
        "os",
        "is"
      ],
      [
        "Ġ",
        "ed"
      ],
      [
        "Ġcur",
        "rent"
      ],
      [
        "Ã",
        "ī"
      ],
      [
        "u",
        "ro"
      ],
      [
        "ĠA",
        "ll"
      ],
      [
        "Ġpl",
        "ace"
      ],
      [
        "Ġc",
        "r"
      ],
      [
        "Ġb",
        "acter"
      ],
      [
        "Ġl",
        "it"
      ],
      [
        "iv",
        "ing"
      ],
      [
        "r",
        "ation"
      ],
      [
        "Ġ",
        "z"
      ],
      [
        "al",
        "ity"
      ],
      [
        "Ġh",
        "and"
      ],
      [
        "i",
        "qu"
      ],
      [
        "ang",
        "u"
      ],
      [
        "Ġmonth",
        "s"
      ],
      [
        "Ġg",
        "u"
      ],
      [
        "ĠIn",
        "d"
      ],
      [
        "1",
        "9"
      ],
      [
        "x",
        "t"
      ],
      [
        "Ġl",
        "aw"
      ],
      [
        "os",
        "ed"
      ],
      [
        "o",
        "int"
      ],
      [
        "at",
        "or"
      ],
      [
        "an",
        "e"
      ],
      [
        "Ġp",
        "ot"
      ],
      [
        "Ġd",
        "on"
      ],
      [
        "Ġpr",
        "ice"
      ],
      [
        "g",
        "in"
      ],
      [
        "Ġ",
        "ur"
      ],
      [
        "Ġserv",
        "ice"
      ],
      [
        "-",
        "-"
      ],
      [
        "i",
        "er"
      ],
      [
        "m",
        "on"
      ],
      [
        "p",
        "or"
      ],
      [
        "Ġan",
        "im"
      ],
      [
        "Ġl",
        "o"
      ],
      [
        "ros",
        "s"
      ],
      [
        "Ġimport",
        "ant"
      ],
      [
        "1",
        "2"
      ],
      [
        "iz",
        "ation"
      ],
      [
        "ang",
        "es"
      ],
      [
        "Ġdeg",
        "rees"
      ],
      [
        "p",
        "ro"
      ],
      [
        "Ġb",
        "as"
      ],
      [
        "am",
        "es"
      ],
      [
        "Ġ1",
        "4"
      ],
      [
        "t",
        "il"
      ],
      [
        "ear",
        "ch"
      ],
      [
        "Ġfam",
        "ily"
      ],
      [
        "i",
        "ally"
      ],
      [
        "v",
        "is"
      ],
      [
        "Ġd",
        "ri"
      ],
      [
        "ĠA",
        "m"
      ],
      [
        "ot",
        "s"
      ],
      [
        "g",
        "n"
      ],
      [
        "o",
        "es"
      ],
      [
        "y",
        "p"
      ],
      [
        "an",
        "n"
      ],
      [
        "en",
        "n"
      ],
      [
        "Ġcaus",
        "ed"
      ],
      [
        "Ġtyp",
        "ically"
      ],
      [
        "a",
        "z"
      ],
      [
        "re",
        "ad"
      ],
      [
        "Ġacc",
        "ount"
      ],
      [
        "Ġma",
        "jor"
      ],
      [
        "x",
        "im"
      ],
      [
        "c",
        "y"
      ],
      [
        "o",
        "f"
      ],
      [
        "o",
        "id"
      ],
      [
        "Ġan",
        "n"
      ],
      [
        "Ġn",
        "ow"
      ],
      [
        "un",
        "e"
      ],
      [
        "Ġpro",
        "per"
      ],
      [
        "Ġbel",
        "ow"
      ],
      [
        "1",
        "5"
      ],
      [
        "Ġpro",
        "ble"
      ],
      [
        "if",
        "ied"
      ],
      [
        "ound",
        "s"
      ],
      [
        "m",
        "ical"
      ],
      [
        "Ã",
        "ĥ"
      ],
      [
        "in",
        "o"
      ],
      [
        "Ġd",
        "r"
      ],
      [
        "Ġl",
        "and"
      ],
      [
        "Ġwee",
        "ks"
      ],
      [
        "a",
        "u"
      ],
      [
        "Ġl",
        "arge"
      ],
      [
        "in",
        "a"
      ],
      [
        "ur",
        "y"
      ],
      [
        "l",
        "ess"
      ],
      [
        "Ġs",
        "qu"
      ],
      [
        "Ġexam",
        "ple"
      ],
      [
        "m",
        "it"
      ],
      [
        "he",
        "st"
      ],
      [
        "Ġw",
        "ant"
      ],
      [
        "Ġb",
        "rain"
      ],
      [
        "Ġl",
        "ife"
      ],
      [
        "et",
        "ic"
      ],
      [
        "Ġmin",
        "utes"
      ],
      [
        "m",
        "an"
      ],
      [
        "Ġhe",
        "ad"
      ],
      [
        "Ġch",
        "ange"
      ],
      [
        "Ġ",
        "|"
      ],
      [
        "Ġt",
        "iss"
      ],
      [
        "Ġc",
        "or"
      ],
      [
        "ot",
        "e"
      ],
      [
        "ĠThe",
        "se"
      ],
      [
        "ĠT",
        "r"
      ],
      [
        "Ġe",
        "le"
      ],
      [
        "Ġg",
        "reat"
      ],
      [
        "c",
        "rib"
      ],
      [
        "Ġto",
        "p"
      ],
      [
        "Ġl",
        "ook"
      ],
      [
        "Ġre",
        "d"
      ],
      [
        "ĠE",
        "ar"
      ],
      [
        "Ġwe",
        "ight"
      ],
      [
        "in",
        "ing"
      ],
      [
        "Ġf",
        "at"
      ],
      [
        "Ġf",
        "our"
      ],
      [
        "Ġf",
        "ull"
      ],
      [
        "Ġorig",
        "in"
      ],
      [
        "Ġlarg",
        "est"
      ],
      [
        "i",
        "or"
      ],
      [
        "Ġs",
        "un"
      ],
      [
        "Ġn",
        "on"
      ],
      [
        "Ġv",
        "it"
      ],
      [
        "Ġc",
        "le"
      ],
      [
        "Ġre",
        "act"
      ],
      [
        "Ġun",
        "til"
      ],
      [
        "Ġo",
        "pen"
      ],
      [
        "Ġc",
        "ounty"
      ],
      [
        "Ġan",
        "other"
      ],
      [
        "le",
        "y"
      ],
      [
        "ĠThe",
        "y"
      ],
      [
        "a",
        "f"
      ],
      [
        "ce",
        "pt"
      ],
      [
        "l",
        "am"
      ],
      [
        "st",
        "it"
      ],
      [
        "ĠO",
        "r"
      ],
      [
        "Ġmo",
        "ve"
      ],
      [
        "at",
        "ic"
      ],
      [
        "Ġd",
        "ata"
      ],
      [
        "Ġwith",
        "out"
      ],
      [
        "Ġle",
        "g"
      ],
      [
        "Ġco",
        "ok"
      ],
      [
        "Ġwee",
        "k"
      ],
      [
        "Ġsever",
        "al"
      ],
      [
        "at",
        "ures"
      ],
      [
        "Ġth",
        "ose"
      ],
      [
        "Ġst",
        "r"
      ],
      [
        "Ġche",
        "ck"
      ],
      [
        "3",
        "0"
      ],
      [
        "Ġb",
        "aby"
      ],
      [
        "ĠF",
        "r"
      ],
      [
        "u",
        "pp"
      ],
      [
        "Ġc",
        "y"
      ],
      [
        "Ġl",
        "ive"
      ],
      [
        "Ġl",
        "ight"
      ],
      [
        "Ġe",
        "y"
      ],
      [
        "Ġpro",
        "gram"
      ],
      [
        "d",
        "e"
      ],
      [
        "Ġt",
        "imes"
      ],
      [
        "Ġke",
        "ep"
      ],
      [
        "Ġc",
        "ould"
      ],
      [
        "Ġf",
        "ew"
      ],
      [
        "Ġp",
        "ost"
      ],
      [
        "ir",
        "d"
      ],
      [
        "c",
        "on"
      ],
      [
        "Ġp",
        "ress"
      ],
      [
        "Ġ5",
        "0"
      ],
      [
        "Ġchar",
        "acter"
      ],
      [
        "Ġp",
        "ower"
      ],
      [
        "Ġpro",
        "t"
      ],
      [
        "red",
        "it"
      ],
      [
        "Ġav",
        "ail"
      ],
      [
        "g",
        "th"
      ],
      [
        "p",
        "s"
      ],
      [
        "Ġp",
        "a"
      ],
      [
        "Ġre",
        "fer"
      ],
      [
        "omet",
        "imes"
      ],
      [
        "ĠHow",
        "ever"
      ],
      [
        "Ġag",
        "ain"
      ],
      [
        "u",
        "le"
      ],
      [
        "it",
        "ive"
      ],
      [
        "Ġp",
        "ar"
      ],
      [
        "Ġd",
        "ru"
      ],
      [
        "ĠC",
        "A"
      ],
      [
        "Ġsh",
        "ow"
      ],
      [
        "Ġd",
        "am"
      ],
      [
        "il",
        "le"
      ],
      [
        "Ġ2",
        "5"
      ],
      [
        "if",
        "orn"
      ],
      [
        "Ġfl",
        "u"
      ],
      [
        "Ġcost",
        "s"
      ],
      [
        "6",
        "0"
      ],
      [
        "n",
        "ect"
      ],
      [
        "r",
        "ies"
      ],
      [
        "Ġ",
        "Z"
      ],
      [
        "Ġs",
        "pe"
      ],
      [
        "Ġre",
        "le"
      ],
      [
        "Ġe",
        "as"
      ],
      [
        "Ġwh",
        "ite"
      ],
      [
        "os",
        "p"
      ],
      [
        "Ġac",
        "id"
      ],
      [
        "Ġass",
        "oci"
      ],
      [
        "g",
        "ine"
      ],
      [
        "Ġ",
        "el"
      ],
      [
        "in",
        "ation"
      ],
      [
        "Ġn",
        "et"
      ],
      [
        "ĠC",
        "ity"
      ],
      [
        "ĠS",
        "al"
      ],
      [
        "ivid",
        "ual"
      ],
      [
        "iforn",
        "ia"
      ],
      [
        "d",
        "om"
      ],
      [
        "it",
        "her"
      ],
      [
        "er",
        "n"
      ],
      [
        "Ġf",
        "oot"
      ],
      [
        "Ġb",
        "i"
      ],
      [
        "Ġcont",
        "in"
      ],
      [
        "Ġph",
        "ys"
      ],
      [
        "Ġmed",
        "ical"
      ],
      [
        "Ġmus",
        "cle"
      ],
      [
        "r",
        "ing"
      ],
      [
        "Ġl",
        "angu"
      ],
      [
        "ir",
        "on"
      ],
      [
        "Ġcol",
        "or"
      ],
      [
        "Ġte",
        "chn"
      ],
      [
        "Ġconsider",
        "ed"
      ],
      [
        "xim",
        "ately"
      ],
      [
        "at",
        "ch"
      ],
      [
        "Ġc",
        "our"
      ],
      [
        "Ġmo",
        "le"
      ],
      [
        "2",
        "5"
      ],
      [
        "i",
        "eld"
      ],
      [
        "Ã",
        "ĭ"
      ],
      [
        "Ġf",
        "in"
      ],
      [
        "Ġm",
        "ark"
      ],
      [
        "Ġre",
        "n"
      ],
      [
        "Ġsing",
        "le"
      ],
      [
        "m",
        "ber"
      ],
      [
        "t",
        "ain"
      ],
      [
        "Ġpl",
        "ant"
      ],
      [
        "ater",
        "ial"
      ],
      [
        "row",
        "n"
      ],
      [
        "Ġgo",
        "vern"
      ],
      [
        "ĠC",
        "ent"
      ],
      [
        "Ġre",
        "st"
      ],
      [
        "vi",
        "ew"
      ],
      [
        "R",
        "A"
      ],
      [
        "n",
        "er"
      ],
      [
        "Ġ1",
        "7"
      ],
      [
        "Ġchild",
        "ren"
      ],
      [
        "Ġ",
        "es"
      ],
      [
        "an",
        "ing"
      ],
      [
        "ĠS",
        "o"
      ],
      [
        "ut",
        "er"
      ],
      [
        "ĠP",
        "re"
      ],
      [
        "ĠW",
        "or"
      ],
      [
        "end",
        "ed"
      ],
      [
        "Ġle",
        "ast"
      ],
      [
        "Ġspec",
        "ific"
      ],
      [
        "Ġmeas",
        "ure"
      ],
      [
        "is",
        "k"
      ],
      [
        "Ġf",
        "ore"
      ],
      [
        "one",
        "y"
      ],
      [
        "Ġpart",
        "ic"
      ],
      [
        "Ġbec",
        "ome"
      ],
      [
        "Ġbu",
        "ild"
      ],
      [
        "Ġsug",
        "ar"
      ],
      [
        "1",
        "1"
      ],
      [
        "is",
        "hed"
      ],
      [
        "Ġh",
        "ist"
      ],
      [
        "Ġh",
        "ouse"
      ],
      [
        "ent",
        "al"
      ],
      [
        "ĠN",
        "e"
      ],
      [
        "Ġ201",
        "0"
      ],
      [
        "Ġtreat",
        "ment"
      ],
      [
        "Ġbenef",
        "its"
      ],
      [
        "Ġsqu",
        "are"
      ],
      [
        "Ġm",
        "illion"
      ],
      [
        "Ġre",
        "port"
      ],
      [
        "Ġact",
        "iv"
      ],
      [
        "eth",
        "ing"
      ],
      [
        "Ġs",
        "our"
      ],
      [
        "Ġc",
        "ensus"
      ],
      [
        "Ġm",
        "aterial"
      ],
      [
        "Ġh",
        "ard"
      ],
      [
        "ĠP",
        "e"
      ],
      [
        "a",
        "pe"
      ],
      [
        "w",
        "are"
      ],
      [
        "ĠT",
        "e"
      ],
      [
        "Ġn",
        "ear"
      ],
      [
        "Ġre",
        "pl"
      ],
      [
        "Ġst",
        "e"
      ],
      [
        "v",
        "al"
      ],
      [
        "Ġ",
        "..."
      ],
      [
        "Ġw",
        "rit"
      ],
      [
        "Ġm",
        "ar"
      ],
      [
        "Ġn",
        "ormal"
      ],
      [
        "ab",
        "les"
      ],
      [
        "Ġsh",
        "ort"
      ],
      [
        "Ġdis",
        "ord"
      ],
      [
        "dition",
        "al"
      ],
      [
        "Ġind",
        "ividual"
      ],
      [
        "uro",
        "pe"
      ],
      [
        "i",
        "ents"
      ],
      [
        "Ġh",
        "ot"
      ],
      [
        "ĠA",
        "b"
      ],
      [
        "ĠSt",
        "ate"
      ],
      [
        "Ġph",
        "one"
      ],
      [
        "Ġsupp",
        "ort"
      ],
      [
        "1",
        "8"
      ],
      [
        "Ġc",
        "ard"
      ],
      [
        "Ġl",
        "ab"
      ],
      [
        "Ġl",
        "ower"
      ],
      [
        "ĠS",
        "c"
      ],
      [
        "ra",
        "w"
      ],
      [
        "end",
        "s"
      ],
      [
        "Ġche",
        "mical"
      ],
      [
        "uc",
        "le"
      ],
      [
        "Ġappro",
        "ximately"
      ],
      [
        "Ġavail",
        "able"
      ],
      [
        "t",
        "o"
      ],
      [
        "Ġc",
        "ap"
      ],
      [
        "est",
        "ion"
      ],
      [
        "op",
        "h"
      ],
      [
        "Ġcom",
        "e"
      ],
      [
        "Ġpl",
        "ants"
      ],
      [
        "ĠCon",
        "t"
      ],
      [
        "a",
        "pt"
      ],
      [
        "Ġc",
        "ustom"
      ],
      [
        "os",
        "ition"
      ],
      [
        "Ġpr",
        "im"
      ],
      [
        "b",
        "o"
      ],
      [
        "Ġprote",
        "in"
      ],
      [
        "Ġpro",
        "f"
      ],
      [
        "ick",
        "en"
      ],
      [
        "Ġs",
        "om"
      ],
      [
        "id",
        "d"
      ],
      [
        "ĠM",
        "ost"
      ],
      [
        "ĠB",
        "ut"
      ],
      [
        "are",
        "d"
      ],
      [
        "ff",
        "ic"
      ],
      [
        "Ġloc",
        "al"
      ],
      [
        "Ġsub",
        "st"
      ],
      [
        "ic",
        "ro"
      ],
      [
        "ro",
        "ll"
      ],
      [
        "am",
        "ed"
      ],
      [
        "ra",
        "ph"
      ],
      [
        "Ġim",
        "m"
      ],
      [
        "Ġear",
        "ly"
      ],
      [
        "Ġstand",
        "ard"
      ],
      [
        "Ġl",
        "im"
      ],
      [
        "oc",
        "ial"
      ],
      [
        "ĠG",
        "r"
      ],
      [
        "are",
        "n"
      ],
      [
        "ction",
        "s"
      ],
      [
        "Ġpop",
        "ular"
      ],
      [
        "Ġdepend",
        "ing"
      ],
      [
        "4",
        "0"
      ],
      [
        "Ġp",
        "ublic"
      ],
      [
        "ent",
        "ial"
      ],
      [
        "ĠS",
        "ome"
      ],
      [
        "ĠG",
        "en"
      ],
      [
        "ĠCal",
        "ifornia"
      ],
      [
        "3",
        "5"
      ],
      [
        "ĠM",
        "an"
      ],
      [
        "ab",
        "ility"
      ],
      [
        "ĠG",
        "erm"
      ],
      [
        "Ġret",
        "urn"
      ],
      [
        "Ġcert",
        "ain"
      ],
      [
        "w",
        "ork"
      ],
      [
        "Ġst",
        "ates"
      ],
      [
        "ĠJ",
        "oh"
      ],
      [
        "Ġacc",
        "ording"
      ],
      [
        "iss",
        "ion"
      ],
      [
        "Ġear",
        "n"
      ],
      [
        "Ġcal",
        "ories"
      ],
      [
        "yd",
        "ro"
      ],
      [
        "ed",
        "ing"
      ],
      [
        "ĠC",
        "o"
      ],
      [
        "Ġe",
        "ither"
      ],
      [
        "ĠM",
        "ay"
      ],
      [
        "ore",
        "d"
      ],
      [
        "Ġab",
        "ove"
      ],
      [
        "ict",
        "ion"
      ],
      [
        "Ġwom",
        "en"
      ],
      [
        "m",
        "ost"
      ],
      [
        "Ġn",
        "at"
      ],
      [
        "ĠS",
        "erv"
      ],
      [
        "Ġv",
        "ol"
      ],
      [
        "Ġcom",
        "b"
      ],
      [
        "Ġbacter",
        "ia"
      ],
      [
        "c",
        "les"
      ],
      [
        "om",
        "m"
      ],
      [
        "Ġn",
        "ut"
      ],
      [
        "Ġre",
        "ad"
      ],
      [
        "ur",
        "s"
      ],
      [
        "Ġor",
        "der"
      ],
      [
        "um",
        "b"
      ],
      [
        "Ġinf",
        "ection"
      ],
      [
        "Ġfood",
        "s"
      ],
      [
        "cri",
        "ption"
      ],
      [
        "Ġt",
        "urn"
      ],
      [
        "Ġb",
        "ro"
      ],
      [
        "Ġin",
        "tern"
      ],
      [
        "Ġis",
        "s"
      ],
      [
        "Ġe",
        "g"
      ],
      [
        "ad",
        "a"
      ],
      [
        "em",
        "ent"
      ],
      [
        "Ġinc",
        "ome"
      ],
      [
        "..",
        ".."
      ],
      [
        "Ġcont",
        "rol"
      ],
      [
        "1",
        "7"
      ],
      [
        "Ġp",
        "oss"
      ],
      [
        "us",
        "s"
      ],
      [
        "st",
        "ru"
      ],
      [
        "Ġe",
        "at"
      ],
      [
        "res",
        "h"
      ],
      [
        "Ġha",
        "ir"
      ],
      [
        "Ġ4",
        "0"
      ],
      [
        "ĠAn",
        "d"
      ],
      [
        "Ġfollow",
        "ing"
      ],
      [
        "ivers",
        "ity"
      ],
      [
        "is",
        "on"
      ],
      [
        "ĠR",
        "es"
      ],
      [
        "Ġ19",
        "9"
      ],
      [
        "Ġco",
        "ver"
      ],
      [
        "Ġoccur",
        "s"
      ],
      [
        "Ġproduct",
        "s"
      ],
      [
        "m",
        "e"
      ],
      [
        "Ġd",
        "ig"
      ],
      [
        "Ġ1",
        "00"
      ],
      [
        "ĠM",
        "ount"
      ],
      [
        "ir",
        "l"
      ],
      [
        "ĠR",
        "o"
      ],
      [
        "ĠE",
        "urope"
      ],
      [
        "ĠY",
        "our"
      ],
      [
        "ĠY",
        "ork"
      ],
      [
        "Ġgen",
        "eral"
      ],
      [
        "i",
        "ew"
      ],
      [
        "Â",
        "·"
      ],
      [
        "as",
        "k"
      ],
      [
        "ĠG",
        "e"
      ],
      [
        "Ġk",
        "id"
      ],
      [
        "h",
        "ol"
      ],
      [
        "i",
        "ber"
      ],
      [
        "Ã",
        "İ"
      ],
      [
        "Ġc",
        "ode"
      ],
      [
        "us",
        "h"
      ],
      [
        "ĠD",
        "ep"
      ],
      [
        "Ġv",
        "ary"
      ],
      [
        "eth",
        "od"
      ],
      [
        "Ġhum",
        "an"
      ],
      [
        "Ġexper",
        "ience"
      ],
      [
        "Ġtiss",
        "ue"
      ],
      [
        "Ġassoci",
        "ated"
      ],
      [
        "h",
        "or"
      ],
      [
        "v",
        "est"
      ],
      [
        "Ġt",
        "akes"
      ],
      [
        "Ġs",
        "ince"
      ],
      [
        "Ġp",
        "ast"
      ],
      [
        "ed",
        "eral"
      ],
      [
        "Ġm",
        "ult"
      ],
      [
        "Ġre",
        "du"
      ],
      [
        "Ġwh",
        "y"
      ],
      [
        "Ġst",
        "at"
      ],
      [
        "Ġst",
        "ruct"
      ],
      [
        "Ġapp",
        "lic"
      ],
      [
        "Ġcondition",
        "s"
      ],
      [
        "Ġhig",
        "her"
      ],
      [
        "ĠEar",
        "th"
      ],
      [
        "p",
        "ar"
      ],
      [
        "Ġ",
        ","
      ],
      [
        "Ġsom",
        "ething"
      ],
      [
        "Ġ",
        "ver"
      ],
      [
        "Ġo",
        "x"
      ],
      [
        "al",
        "y"
      ],
      [
        "le",
        "x"
      ],
      [
        "ĠS",
        "outh"
      ],
      [
        "ur",
        "ance"
      ],
      [
        "her",
        "n"
      ],
      [
        "Ġ201",
        "5"
      ],
      [
        "Ġrec",
        "ord"
      ],
      [
        "Ġword",
        "s"
      ],
      [
        "a",
        "i"
      ],
      [
        "l",
        "ed"
      ],
      [
        "Ġ",
        "="
      ],
      [
        "Ġh",
        "al"
      ],
      [
        "5",
        "00"
      ],
      [
        "at",
        "ory"
      ],
      [
        "Ġs",
        "um"
      ],
      [
        "Ġw",
        "ind"
      ],
      [
        "ĠA",
        "g"
      ],
      [
        "ĠA",
        "pr"
      ],
      [
        "Ġ2",
        "4"
      ],
      [
        "if",
        "y"
      ],
      [
        "ist",
        "ics"
      ],
      [
        "Ġhe",
        "re"
      ],
      [
        "ain",
        "s"
      ],
      [
        "Ġdiffer",
        "ence"
      ],
      [
        "Ġspec",
        "ial"
      ],
      [
        "Ġdi",
        "et"
      ],
      [
        "il",
        "ar"
      ],
      [
        "Ġth",
        "ough"
      ],
      [
        "Ġ1",
        "1"
      ],
      [
        "Ġcon",
        "f"
      ],
      [
        "Ġex",
        "pl"
      ],
      [
        "o",
        "on"
      ],
      [
        "ate",
        "g"
      ],
      [
        "res",
        "ent"
      ],
      [
        "ific",
        "ation"
      ],
      [
        "enc",
        "es"
      ],
      [
        "Ġcar",
        "b"
      ],
      [
        "a",
        "pp"
      ],
      [
        "um",
        "p"
      ],
      [
        "ri",
        "ed"
      ],
      [
        "Ġprov",
        "ide"
      ],
      [
        "l",
        "o"
      ],
      [
        "es",
        "ter"
      ],
      [
        "al",
        "k"
      ],
      [
        "Ġm",
        "ix"
      ],
      [
        "Ġd",
        "ue"
      ],
      [
        "Ġre",
        "al"
      ],
      [
        "ill",
        "s"
      ],
      [
        "S",
        "T"
      ],
      [
        "Ġo",
        "per"
      ],
      [
        "Ġb",
        "orn"
      ],
      [
        "ĠT",
        "ime"
      ],
      [
        "om",
        "es"
      ],
      [
        "ĠA",
        "pp"
      ],
      [
        "Ġind",
        "ust"
      ],
      [
        "Ġcommon",
        "ly"
      ],
      [
        "Ġhig",
        "hest"
      ],
      [
        "ĠAcc",
        "ording"
      ],
      [
        "ĠJoh",
        "n"
      ],
      [
        "l",
        "ing"
      ],
      [
        "Ġ",
        "ide"
      ],
      [
        "th",
        "ough"
      ],
      [
        "Ġde",
        "v"
      ],
      [
        "ĠO",
        "ne"
      ],
      [
        "iv",
        "ed"
      ],
      [
        "Ġper",
        "form"
      ],
      [
        "Ġdeg",
        "ree"
      ],
      [
        "is",
        "ter"
      ],
      [
        "ĠW",
        "ith"
      ],
      [
        "um",
        "e"
      ],
      [
        "Ġapp",
        "ear"
      ],
      [
        "Ġen",
        "gine"
      ],
      [
        "anc",
        "es"
      ],
      [
        "v",
        "ille"
      ],
      [
        "Ġb",
        "ig"
      ],
      [
        "im",
        "ate"
      ],
      [
        "ab",
        "et"
      ],
      [
        "ĠN",
        "ational"
      ],
      [
        "Ġcom",
        "es"
      ],
      [
        "Ġdo",
        "g"
      ],
      [
        "end",
        "er"
      ],
      [
        "iv",
        "en"
      ],
      [
        "Ġinc",
        "hes"
      ],
      [
        "ĠAn",
        "swer"
      ],
      [
        "Ġlong",
        "er"
      ],
      [
        "Ġpress",
        "ure"
      ],
      [
        "8",
        "0"
      ],
      [
        "m",
        "a"
      ],
      [
        "Ġm",
        "ight"
      ],
      [
        "Ġd",
        "ry"
      ],
      [
        "ĠE",
        "d"
      ],
      [
        "m",
        "in"
      ],
      [
        "Ġs",
        "n"
      ],
      [
        "Ġs",
        "ometimes"
      ],
      [
        "ĠC",
        "ost"
      ],
      [
        "Ġg",
        "re"
      ],
      [
        "'",
        "re"
      ],
      [
        "E",
        "R"
      ],
      [
        "e",
        "es"
      ],
      [
        "f",
        "ric"
      ],
      [
        "s",
        "h"
      ],
      [
        "Ġ",
        "["
      ],
      [
        "Ġf",
        "ile"
      ],
      [
        "Ġto",
        "wn"
      ],
      [
        "Ġl",
        "un"
      ],
      [
        "un",
        "ity"
      ],
      [
        "ast",
        "ic"
      ],
      [
        "co",
        "hol"
      ],
      [
        "7",
        "5"
      ],
      [
        "b",
        "re"
      ],
      [
        "e",
        "c"
      ],
      [
        "Ġs",
        "outh"
      ],
      [
        "Ġw",
        "ar"
      ],
      [
        "Ġbe",
        "gin"
      ],
      [
        "Ġst",
        "ill"
      ],
      [
        "Ġse",
        "ason"
      ],
      [
        "Ġun",
        "it"
      ],
      [
        "Ġ201",
        "6"
      ],
      [
        "Ġph",
        "ot"
      ],
      [
        "Ġ6",
        "0"
      ],
      [
        "Ġspec",
        "ies"
      ],
      [
        "i",
        "ation"
      ],
      [
        "Ġb",
        "ar"
      ],
      [
        "ro",
        "du"
      ],
      [
        "Ġg",
        "ive"
      ],
      [
        "im",
        "b"
      ],
      [
        "ĠP",
        "r"
      ],
      [
        "ĠIn",
        "tern"
      ],
      [
        "Ġme",
        "at"
      ],
      [
        "ĠWe",
        "ather"
      ],
      [
        "ĠCom",
        "p"
      ],
      [
        "Ġeffect",
        "s"
      ],
      [
        "ĠWor",
        "ld"
      ],
      [
        "y",
        "stem"
      ],
      [
        "le",
        "t"
      ],
      [
        "le",
        "ge"
      ],
      [
        "st",
        "er"
      ],
      [
        "Ġe",
        "v"
      ],
      [
        "ĠP",
        "ol"
      ],
      [
        "ĠE",
        "m"
      ],
      [
        "Ġle",
        "t"
      ],
      [
        "Ġle",
        "ft"
      ],
      [
        "ie",
        "ve"
      ],
      [
        "Ġprodu",
        "ce"
      ],
      [
        "Ġcount",
        "ry"
      ],
      [
        "Ġgovern",
        "ment"
      ],
      [
        "Ġp",
        "ort"
      ],
      [
        "ot",
        "t"
      ],
      [
        "ĠR",
        "ep"
      ],
      [
        "ak",
        "en"
      ],
      [
        "ens",
        "es"
      ],
      [
        "Ġpres",
        "ent"
      ],
      [
        "Ġdire",
        "ct"
      ],
      [
        "re",
        "t"
      ],
      [
        "Ġw",
        "on"
      ],
      [
        "Ġp",
        "ract"
      ],
      [
        "Ġl",
        "oss"
      ],
      [
        "ĠD",
        "is"
      ],
      [
        "Ġus",
        "es"
      ],
      [
        "Ġab",
        "le"
      ],
      [
        "Ġlevel",
        "s"
      ],
      [
        "Ġd",
        "el"
      ],
      [
        "ĠA",
        "c"
      ],
      [
        "ĠA",
        "re"
      ],
      [
        "ĠO",
        "f"
      ],
      [
        "Ġrequire",
        "d"
      ],
      [
        "1",
        "4"
      ],
      [
        "s",
        "y"
      ],
      [
        "er",
        "ing"
      ],
      [
        "ic",
        "i"
      ],
      [
        "Ġn",
        "ucle"
      ],
      [
        "ĠW",
        "ar"
      ],
      [
        "if",
        "f"
      ],
      [
        "Ġv",
        "ir"
      ],
      [
        "og",
        "raph"
      ],
      [
        "Ġoff",
        "ic"
      ],
      [
        "c",
        "ast"
      ],
      [
        "c",
        "ular"
      ],
      [
        "w",
        "ays"
      ],
      [
        "Â",
        "Ļ"
      ],
      [
        "es",
        "e"
      ],
      [
        "Ġin",
        "vol"
      ],
      [
        "Ġth",
        "ings"
      ],
      [
        "olog",
        "ical"
      ],
      [
        "o",
        "v"
      ],
      [
        "o",
        "ice"
      ],
      [
        "Ġs",
        "ix"
      ],
      [
        "Ġm",
        "akes"
      ],
      [
        "ĠP",
        "er"
      ],
      [
        "Ġnum",
        "bers"
      ],
      [
        "ĠSe",
        "e"
      ],
      [
        "Ġs",
        "it"
      ],
      [
        "an",
        "ia"
      ],
      [
        "en",
        "gth"
      ],
      [
        "Ġm",
        "aking"
      ],
      [
        "ing",
        "ton"
      ],
      [
        "Ġcon",
        "nect"
      ],
      [
        "Ġcan",
        "cer"
      ],
      [
        "ress",
        "ion"
      ],
      [
        "Ġdes",
        "crib"
      ],
      [
        "ĠAmeric",
        "a"
      ],
      [
        "Ġcontain",
        "s"
      ],
      [
        "Ġval",
        "ue"
      ],
      [
        "2",
        "00"
      ],
      [
        "b",
        "all"
      ],
      [
        "u",
        "ff"
      ],
      [
        "Ġf",
        "ac"
      ],
      [
        "Ġb",
        "ase"
      ],
      [
        "um",
        "ber"
      ],
      [
        "Ġha",
        "pp"
      ],
      [
        "Ġpre",
        "vent"
      ],
      [
        "anc",
        "y"
      ],
      [
        "Ġra",
        "d"
      ],
      [
        "Ġsur",
        "f"
      ],
      [
        "Ġdet",
        "erm"
      ],
      [
        "b",
        "ol"
      ],
      [
        "Â",
        "Ī"
      ],
      [
        "Ġh",
        "old"
      ],
      [
        "ĠC",
        "he"
      ],
      [
        "ot",
        "es"
      ],
      [
        "Ġhe",
        "at"
      ],
      [
        "Ġdr",
        "ink"
      ],
      [
        "Ġvit",
        "amin"
      ],
      [
        "T",
        "I"
      ],
      [
        "s",
        "ide"
      ],
      [
        "Ġf",
        "ish"
      ],
      [
        "Ġan",
        "swer"
      ],
      [
        "Ġm",
        "ass"
      ],
      [
        "as",
        "ter"
      ],
      [
        "ĠA",
        "ug"
      ],
      [
        "am",
        "b"
      ],
      [
        "Ġmus",
        "cles"
      ],
      [
        "ĠAt",
        "l"
      ],
      [
        "abet",
        "es"
      ],
      [
        "l",
        "ished"
      ],
      [
        "t",
        "t"
      ],
      [
        "ou",
        "d"
      ],
      [
        "ĠT",
        "ra"
      ],
      [
        "Ġcan",
        "n"
      ],
      [
        "Ġinclud",
        "es"
      ],
      [
        "Ġrec",
        "omm"
      ],
      [
        "idd",
        "le"
      ],
      [
        "g",
        "est"
      ],
      [
        "w",
        "h"
      ],
      [
        "w",
        "here"
      ],
      [
        "in",
        "ary"
      ],
      [
        "an",
        "a"
      ],
      [
        "Ġf",
        "re"
      ],
      [
        "Ġof",
        "fer"
      ],
      [
        "Ġh",
        "orm"
      ],
      [
        "om",
        "y"
      ],
      [
        "ĠD",
        "NA"
      ],
      [
        "if",
        "t"
      ],
      [
        "Ġcont",
        "rib"
      ],
      [
        "av",
        "es"
      ],
      [
        "Ġprof",
        "ess"
      ],
      [
        "Ġc",
        "ir"
      ],
      [
        "ĠT",
        "ex"
      ],
      [
        "Ġe",
        "p"
      ],
      [
        "ĠD",
        "o"
      ],
      [
        "end",
        "ing"
      ],
      [
        "Ġad",
        "v"
      ],
      [
        "ire",
        "d"
      ],
      [
        "Ġsa",
        "f"
      ],
      [
        "Ġagain",
        "st"
      ],
      [
        "Ġlangu",
        "age"
      ],
      [
        "ĠApr",
        "il"
      ],
      [
        "Ġt",
        "able"
      ],
      [
        "Ġp",
        "ri"
      ],
      [
        "Ġb",
        "ond"
      ],
      [
        "Ġm",
        "ethod"
      ],
      [
        "ĠA",
        "ct"
      ],
      [
        "ent",
        "ly"
      ],
      [
        "id",
        "ge"
      ],
      [
        "ir",
        "th"
      ],
      [
        "Ġpart",
        "s"
      ],
      [
        "Ġinst",
        "all"
      ],
      [
        "1",
        "6"
      ],
      [
        "Ġf",
        "r"
      ],
      [
        "Ġto",
        "o"
      ],
      [
        "Ġg",
        "as"
      ],
      [
        "ĠE",
        "l"
      ],
      [
        "Ġgr",
        "ams"
      ],
      [
        "Ġrel",
        "ated"
      ],
      [
        "Ġorgan",
        "ism"
      ],
      [
        "ĠMe",
        "aning"
      ],
      [
        "rap",
        "y"
      ],
      [
        "Ġg",
        "iven"
      ],
      [
        "ĠF",
        "l"
      ],
      [
        "iv",
        "ely"
      ],
      [
        "Ġdis",
        "c"
      ],
      [
        "Ġdif",
        "f"
      ],
      [
        "a",
        "e"
      ],
      [
        "a",
        "im"
      ],
      [
        "i",
        "res"
      ],
      [
        "ĠF",
        "e"
      ],
      [
        "ell",
        "ing"
      ],
      [
        "Ġle",
        "ar"
      ],
      [
        "Ġprov",
        "ides"
      ],
      [
        "Ġadd",
        "ress"
      ],
      [
        "Ġpur",
        "p"
      ],
      [
        "Ġc",
        "at"
      ],
      [
        "Ġf",
        "all"
      ],
      [
        "il",
        "t"
      ],
      [
        "ail",
        "y"
      ],
      [
        "Ġloc",
        "ation"
      ],
      [
        "Ġform",
        "s"
      ],
      [
        "ĠAs",
        "s"
      ],
      [
        "Ġgener",
        "ally"
      ],
      [
        "u",
        "k"
      ],
      [
        "Ġc",
        "ase"
      ],
      [
        "Ġbl",
        "ack"
      ],
      [
        "Ġanim",
        "als"
      ],
      [
        "s",
        "or"
      ],
      [
        "u",
        "ck"
      ],
      [
        "z",
        "e"
      ],
      [
        "at",
        "in"
      ],
      [
        "Ġw",
        "in"
      ],
      [
        "ed",
        "i"
      ],
      [
        "Ġm",
        "oney"
      ],
      [
        "om",
        "ic"
      ],
      [
        "os",
        "ph"
      ],
      [
        "ĠF",
        "rom"
      ],
      [
        "ĠJ",
        "an"
      ],
      [
        "Ġcol",
        "d"
      ],
      [
        "Ġterm",
        "s"
      ],
      [
        "Ġsim",
        "ple"
      ],
      [
        "Ġrep",
        "resent"
      ],
      [
        "Ġob",
        "ject"
      ],
      [
        "Ġur",
        "ine"
      ],
      [
        "iction",
        "ary"
      ],
      [
        "g",
        "r"
      ],
      [
        "st",
        "and"
      ],
      [
        "ell",
        "ow"
      ],
      [
        "Ġdef",
        "ined"
      ],
      [
        "Ġsome",
        "one"
      ],
      [
        "Ġsim",
        "ilar"
      ],
      [
        "Ġmem",
        "bers"
      ],
      [
        "Ġincre",
        "ase"
      ],
      [
        "Ġrece",
        "ive"
      ],
      [
        "Ġnat",
        "ural"
      ],
      [
        "t",
        "ime"
      ],
      [
        "id",
        "ing"
      ],
      [
        "id",
        "ence"
      ],
      [
        "ĠD",
        "es"
      ],
      [
        "Ġr",
        "isk"
      ],
      [
        "ect",
        "ed"
      ],
      [
        "Ġch",
        "ol"
      ],
      [
        "ard",
        "s"
      ],
      [
        "vi",
        "ous"
      ],
      [
        "Ġvari",
        "ous"
      ],
      [
        "Ġdam",
        "age"
      ],
      [
        "Ġt",
        "aken"
      ],
      [
        "er",
        "ve"
      ],
      [
        "Ġs",
        "ay"
      ],
      [
        "Ġbe",
        "h"
      ],
      [
        "ĠB",
        "y"
      ],
      [
        "ir",
        "m"
      ],
      [
        "em",
        "ber"
      ],
      [
        "op",
        "e"
      ],
      [
        "Ġal",
        "cohol"
      ],
      [
        "Ġk",
        "ind"
      ],
      [
        "iv",
        "al"
      ],
      [
        "ĠJ",
        "u"
      ],
      [
        "Ġhow",
        "ever"
      ],
      [
        "Ġcont",
        "ract"
      ],
      [
        "Ġro",
        "le"
      ],
      [
        "Ġ201",
        "7"
      ],
      [
        "Ġref",
        "ers"
      ],
      [
        "ĠTex",
        "as"
      ],
      [
        "7",
        "0"
      ],
      [
        "I",
        "N"
      ],
      [
        "is",
        "ed"
      ],
      [
        "Ġp",
        "aren"
      ],
      [
        "ĠP",
        "ark"
      ],
      [
        "Ġst",
        "ep"
      ],
      [
        "ast",
        "e"
      ],
      [
        "Ġ19",
        "8"
      ],
      [
        "Ġserv",
        "ices"
      ],
      [
        "__",
        "__"
      ],
      [
        "sy",
        "ch"
      ],
      [
        "1",
        "3"
      ],
      [
        "c",
        "ks"
      ],
      [
        "p",
        "ly"
      ],
      [
        "Ġin",
        "j"
      ],
      [
        "Ġd",
        "em"
      ],
      [
        "Ġh",
        "y"
      ],
      [
        "ur",
        "ity"
      ],
      [
        "Ġdo",
        "ctor"
      ],
      [
        "ĠO",
        "ther"
      ],
      [
        "Ġprodu",
        "ction"
      ],
      [
        "Ġcre",
        "ated"
      ],
      [
        "ĠQ",
        "u"
      ],
      [
        "Ġreact",
        "ion"
      ],
      [
        "f",
        "act"
      ],
      [
        "at",
        "t"
      ],
      [
        "is",
        "ing"
      ],
      [
        "Ġm",
        "ax"
      ],
      [
        "Ġto",
        "get"
      ],
      [
        "om",
        "a"
      ],
      [
        "ĠA",
        "fric"
      ],
      [
        "ĠB",
        "r"
      ],
      [
        "Ġch",
        "icken"
      ],
      [
        "Ġne",
        "xt"
      ],
      [
        "Ġad",
        "ult"
      ],
      [
        "Ġall",
        "ow"
      ],
      [
        "Ġ-",
        "-"
      ],
      [
        "ĠHe",
        "alth"
      ],
      [
        "Ġresult",
        "s"
      ],
      [
        "Ġed",
        "uc"
      ],
      [
        "iqu",
        "e"
      ],
      [
        "Ġproble",
        "ms"
      ],
      [
        "Ġdru",
        "g"
      ],
      [
        "Ġtoget",
        "her"
      ],
      [
        "2",
        "4"
      ],
      [
        "a",
        "ut"
      ],
      [
        "y",
        "le"
      ],
      [
        "on",
        "ic"
      ],
      [
        "Ġb",
        "one"
      ],
      [
        "Ġl",
        "ik"
      ],
      [
        "Ġ1",
        "3"
      ],
      [
        "ĠD",
        "ay"
      ],
      [
        "Ġal",
        "ong"
      ],
      [
        "Ġj",
        "oint"
      ],
      [
        "Ġfl",
        "ow"
      ],
      [
        "Ġstud",
        "y"
      ],
      [
        "Ġstud",
        "ents"
      ],
      [
        "Ġsa",
        "id"
      ],
      [
        "Ġpartic",
        "ular"
      ],
      [
        "Ġhist",
        "ory"
      ],
      [
        "a",
        "ur"
      ],
      [
        "Ġ",
        "x"
      ],
      [
        "is",
        "ion"
      ],
      [
        "ic",
        "ian"
      ],
      [
        "ĠS",
        "w"
      ],
      [
        "Ġon",
        "line"
      ],
      [
        "ĠH",
        "ar"
      ],
      [
        "Ġad",
        "j"
      ],
      [
        "Ġ201",
        "4"
      ],
      [
        "Ġtemper",
        "atures"
      ],
      [
        "ron",
        "ic"
      ],
      [
        "c",
        "he"
      ],
      [
        "o",
        "ks"
      ],
      [
        "re",
        "g"
      ],
      [
        "it",
        "ary"
      ],
      [
        "ed",
        "s"
      ],
      [
        "Ġm",
        "g"
      ],
      [
        "and",
        "s"
      ],
      [
        "ect",
        "ions"
      ],
      [
        "du",
        "ctor"
      ],
      [
        "Ġra",
        "in"
      ],
      [
        "Ġind",
        "ic"
      ],
      [
        "Ġreg",
        "ion"
      ],
      [
        "Ġpa",
        "id"
      ],
      [
        "v",
        "iron"
      ],
      [
        "or",
        "g"
      ],
      [
        "Ġf",
        "ru"
      ],
      [
        "ĠS",
        "u"
      ],
      [
        "ul",
        "es"
      ],
      [
        "ĠW",
        "ind"
      ],
      [
        "art",
        "ment"
      ],
      [
        "ree",
        "k"
      ],
      [
        "Ġpre",
        "gn"
      ],
      [
        "Ġsal",
        "es"
      ],
      [
        "Ġins",
        "urance"
      ],
      [
        "i",
        "ef"
      ],
      [
        "z",
        "ym"
      ],
      [
        "Ġc",
        "redit"
      ],
      [
        "Ġp",
        "en"
      ],
      [
        "Ġd",
        "aily"
      ],
      [
        "Ġto",
        "ol"
      ],
      [
        "ul",
        "a"
      ],
      [
        "od",
        "es"
      ],
      [
        "ĠB",
        "est"
      ],
      [
        "em",
        "s"
      ],
      [
        "ĠU",
        "s"
      ],
      [
        "Ġwor",
        "ks"
      ],
      [
        "ail",
        "s"
      ],
      [
        "Ġso",
        "ft"
      ],
      [
        "Ġmin",
        "imum"
      ],
      [
        "Ġlit",
        "tle"
      ],
      [
        "Ġey",
        "e"
      ],
      [
        ".",
        ","
      ],
      [
        "u",
        "ary"
      ],
      [
        "Ġ",
        "ident"
      ],
      [
        "Ġb",
        "it"
      ],
      [
        "Ġm",
        "ot"
      ],
      [
        "Ġh",
        "ydro"
      ],
      [
        "Ġl",
        "ength"
      ],
      [
        "ĠW",
        "ash"
      ],
      [
        "um",
        "ent"
      ],
      [
        "ac",
        "y"
      ],
      [
        "Ġch",
        "anges"
      ],
      [
        "ĠAn",
        "g"
      ],
      [
        "Ġar",
        "t"
      ],
      [
        "yd",
        "r"
      ],
      [
        "Ġhal",
        "f"
      ],
      [
        "d",
        "ing"
      ],
      [
        "o",
        "le"
      ],
      [
        "or",
        "por"
      ],
      [
        "ro",
        "ph"
      ],
      [
        "Ġl",
        "iving"
      ],
      [
        "ĠA",
        "verage"
      ],
      [
        "Ġth",
        "ink"
      ],
      [
        "Ġ2",
        "1"
      ],
      [
        "Ġag",
        "o"
      ],
      [
        "Ġaut",
        "hor"
      ],
      [
        "on",
        "y"
      ],
      [
        "is",
        "es"
      ],
      [
        "Ġl",
        "ay"
      ],
      [
        "il",
        "i"
      ],
      [
        "Ġn",
        "amed"
      ],
      [
        "ce",
        "mber"
      ],
      [
        "Ġst",
        "ar"
      ],
      [
        "Ġv",
        "ac"
      ],
      [
        "Ġr",
        "out"
      ],
      [
        "Ġother",
        "s"
      ],
      [
        "ĠK",
        "ing"
      ],
      [
        "Ġwho",
        "le"
      ],
      [
        "Ġbet",
        "ter"
      ],
      [
        "Ġser",
        "ies"
      ],
      [
        "i",
        "am"
      ],
      [
        "er",
        "y"
      ],
      [
        "ac",
        "ks"
      ],
      [
        "Ġha",
        "ving"
      ],
      [
        "pl",
        "es"
      ],
      [
        "ren",
        "ch"
      ],
      [
        "ian",
        "a"
      ],
      [
        "Ġim",
        "pro"
      ],
      [
        "Ġfe",
        "e"
      ],
[...]
